'<pad>'
'<EOS>'
', _'
'._'
'the_'
'_'
'in_'
'of_'
'and_'
'die_'
'to_'
'der_'
'und_'
'a_'
's_'
'-_'
'is_'
'that_'
'zu_'
'for_'
'den_'
'von_'
'on_'
'n_'
'ist_'
'an_'
'. _'
'für_'
'en_'
'be_'
'The_'
'with_'
'are_'
'es_'
'e_'
'das_'
'as_'
'des_'
'auf_'
'mit_'
'eine_'
'it_'
'dass_'
'nicht_'
'im_'
'I_'
'by_'
'this_'
'not_'
'have_'
' (_'
'sich_'
' – _'
'was_'
'ein_'
'werden_'
'will_'
'Die_'
'from_'
'’_'
'dem_'
'we_'
': _'
't_'
'has_'
'which_'
'Sie_'
'or_'
'at_'
'als_'
'r_'
'er_'
'auch_'
'wir_'
'you_'
'wird_'
'sind_'
'In_'
'um_'
') _'
'so_'
'sie_'
'ing_'
'all_'
'can_'
''_'
' - _'
'einer_'
'd_'
'hat_'
'also_'
'wie_'
'European_'
'haben_'
'oder_'
'would_'
'über_'
'more_'
'their_'
'its_'
'but_'
'?_'
'ed_'
'einen_'
'ich_'
'zur_'
'y_'
'our_'
'aus_'
'Das_'
'bei_'
'they_'
'one_'
'been_'
'; _'
'einem_'
'Union_'
'should_'
'EU_'
'It_'
'nur_'
'This_'
'diese_'
'nach_'
'/_'
'können_'
'durch_'
'dieser_'
'am_'
'other_'
'ung_'
'do_'
'zum_'
'there_'
'no_'
' , _'
'war_'
'kann_'
'countries_'
'We_'
'1_'
'than_'
'your_'
'de_'
'Der_'
'only_'
'new_'
'noch_'
'o_'
'2_'
'vor_'
'Mr_'
'were_'
'Europe_'
'like_'
'about_'
'must_'
'Ich_'
'wurde_'
' "_'
'wenn_'
'up_'
'Es_'
'm_'
'time_'
'- _'
'man_'
'President_'
'us_'
'who_'
'if_'
'aber_'
'US_'
'world_'
'these_'
'sein_'
'Hotel_'
'very_'
'uns_'
'people_'
'China_'
'But_'
'A_'
' ._'
'müssen_'
'mehr_'
'ten_'
'his_'
'5_'
'such_'
'te_'
'Commission_'
'Wir_'
'ng_'
'3_'
'out_'
'ihre_'
'into_'
' “_'
'when_'
'now_'
'many_'
' „_'
'i_'
'most_'
'sehr_'
'% _'
'what_'
'!_'
'Kommission_'
'some_'
'eines_'
'l_'
'he_'
',_'
'States_'
'4_'
'any_'
'them_'
'had_'
'Herr_'
')._'
'" _'
'well_'
'economic_'
'diesem_'
'), _'
'first_'
'muss_'
'over_'
'years_'
'alle_'
'need_'
'bis_'
'even_'
'hotel_'
'my_'
'zwischen_'
'unter_'
'ly_'
'keine_'
'use_'
'make_'
'between_'
'work_'
'political_'
'could_'
'because_'
'Parliament_'
'policy_'
'two_'
'those_'
'anderen_'
'gibt_'
'gegen_'
'may_'
'Council_'
'report_'
'system_'
'way_'
'Präsident_'
'important_'
'Europäischen_'
'Europa_'
'country_'
'just_'
'0_'
'support_'
'much_'
'vom_'
'government_'
'dieses_'
'sowie_'
'If_'
'take_'
'ungen_'
'made_'
'year_'
'market_'
'seine_'
'“ _'
'möchte_'
'k_'
'able_'
'Wenn_'
'Member_'
'how_'
'being_'
'public_'
'Welt_'
'al_'
'Menschen_'
'Jahr_'
'” _'
'where_'
'da_'
'long_'
'ihrer_'
'g_'
'' _'
'after_'
'wurden_'
'sondern_'
'immer_'
' _'
'andere_'
'(_'
'own_'
'Länder_'
'good_'
'dies_'
'international_'
'USA_'
'diesen_'
'right_'
'Jahren_'
'Zeit_'
'For_'
':_'
'last_'
'growth_'
'part_'
'both_'
'same_'
'S_'
'damit_'
'through_'
'h_'
'global_'
'dann_'
'Diese_'
'Im_'
'sollte_'
'United_'
'As_'
'then_'
'6_'
'hier_'
'against_'
'7_'
'unsere_'
'end_'
'There_'
'würde_'
'10_'
'high_'
'information_'
'Bericht_'
're_'
'under_'
'financial_'
'z_'
'jedoch_'
'point_'
'too_'
'heute_'
'does_'
'Und_'
'ohne_'
'ion_'
'20_'
'Entwicklung_'
'8_'
'social_'
'le_'
'ation_'
'Mitgliedstaaten_'
'neue_'
'before_'
'place_'
'within_'
'seiner_'
'Parlament_'
'still_'
'order_'
'me_'
'fact_'
'area_'
'weil_'
'room_'
'national_'
'la_'
'europäischen_'
'development_'
'see_'
'rights_'
'less_'
'free_'
'denen_'
'Frage_'
'’ _'
'power_'
'possible_'
'Land_'
'Ein_'
'economy_'
'want_'
'course_'
'Regierung_'
'wäre_'
'without_'
'Europäische_'
'neuen_'
'ihr_'
'example_'
' [[_'
'sollten_'
'dazu_'
'number_'
'c_'
'ihren_'
'bereits_'
'You_'
'say_'
'set_'
'far_'
'used_'
'already_'
'So_'
' | _'
'viele_'
'selbst_'
'her_'
'large_'
'human_'
'great_'
'That_'
'! _'
'wieder_'
'se_'
'future_'
'zwei_'
'cannot_'
'während_'
'And_'
'C_'
'America_'
'Aber_'
'9_'
'problem_'
'here_'
'30_'
'today_'
'state_'
'since_'
'therefore_'
'könnte_'
'three_'
'down_'
'000_'
'while_'
' '_'
'view_'
'Lage_'
'crisis_'
'Unternehmen_'
'trade_'
'denn_'
'Ländern_'
'viel_'
'Eine_'
'believe_'
'issue_'
'level_'
'jetzt_'
'help_'
'Dies_'
'including_'
'el_'
'darauf_'
'..._'
'machen_'
'Maßnahmen_'
'geht_'
'find_'
'bar_'
'available_'
'go_'
'few_'
'services_'
'per_'
'next_'
'case_'
'u_'
'dafür_'
'clear_'
'wo_'
'real_'
'lassen_'
'different_'
'current_'
'D_'
'00_'
'st_'
'ers_'
'rs_'
'energy_'
'15_'
'politischen_'
'liegt_'
'einige_'
'Staaten_'
'question_'
'mich_'
'means_'
'change_'
'Mit_'
'process_'
'Ihnen_'
'Doch_'
'ne_'
'waren_'
'security_'
'Jahre_'
'Frau_'
'city_'
'They_'
'B_'
'service_'
'seit_'
'know_'
'ganz_'
'doch_'
'tion_'
'problems_'
'areas_'
'E_'
'2009_'
'ts_'
'ob_'
'get_'
'et_'
'during_'
'unserer_'
'gut_'
'finden_'
'When_'
'day_'
'based_'
'allem_'
'small_'
'Politik_'
'however_'
'com_'
'Committee_'
'wollen_'
'why_'
'health_'
'habe_'
'Germany_'
'allen_'
'Bereich_'
'x_'
'offers_'
'daß_'
'best_'
'50_'
'law_'
'access_'
'Wie_'
'Rat_'
'Euro_'
'making_'
'lich_'
'common_'
'business_'
'better_'
'To_'
'interest_'
'bietet_'
'Commissioner_'
'2008_'
've_'
'ce_'
'back_'
'Israel_'
'rate_'
'private_'
'politische_'
'major_'
'etwas_'
'Zimmer_'
'Japan_'
'nun_'
'letzten_'
'ies_'
'Teil_'
'think_'
'term_'
'stellen_'
'non_'
'come_'
'did_'
'become_'
'action_'
'New_'
'Iran_'
'yang_'
'result_'
'particular_'
'each_'
'debate_'
'besteht_'
'around_'
'schon_'
'provide_'
'ge_'
'every_'
'drei_'
'stay_'
'said_'
'another_'
'Bank_'
'Problem_'
'House_'
'situation_'
'etwa_'
'deren_'
'Unterstützung_'
'These_'
'Probleme_'
'Internet_'
'Ihre_'
'whether_'
'zwar_'
'tun_'
'page_'
'citizens_'
'ch_'
'On_'
'Bürger_'
'ns_'
'measures_'
'given_'
'erhalten_'
'again_'
'System_'
'needs_'
'möglich_'
'insbesondere_'
'full_'
'women_'
'money_'
'issues_'
'sten_'
'beim_'
'2000_'
'|_'
'T_'
'große_'
'further_'
'ab_'
'Auch_'
'American_'
'proposal_'
'often_'
'million_'
'main_'
'gen_'
'gegenüber_'
'Herrn_'
'worden_'
'vote_'
'ter_'
'rooms_'
'put_'
'einmal_'
'davon_'
'Ziel_'
'At_'
'Arbeit_'
'price_'
'großen_'
'group_'
'eigenen_'
'weniger_'
'rather_'
'markets_'
'ersten_'
'einfach_'
'Russia_'
'Ende_'
'military_'
'World_'
'Nach_'
'seinen_'
'ons_'
'kommen_'
'Sicherheit_'
'Rolle_'
'Art_'
'sector_'
'little_'
'always_'
'He_'
'12_'
'steht_'
'mir_'
'might_'
'hope_'
'continue_'
'called_'
'France_'
'taken_'
'sehen_'
'di_'
'dan_'
'debt_'
'basis_'
'Informationen_'
'Deutschland_'
'hatte_'
'du_'
'weitere_'
'stehen_'
'old_'
'ment_'
'itself_'
'führen_'
'budget_'
'que_'
'p_'
'open_'
'members_'
'geben_'
'foreign_'
'data_'
'Was_'
'Namen_'
'Für_'
'11_'
'würden_'
'quality_'
'allerdings_'
'Fall_'
'All_'
'sogar_'
'sagen_'
'institutions_'
'agreement_'
'Bedeutung_'
'Als_'
'2006_'
'located_'
'life_'
'form_'
'close_'
'Weise_'
'weiter_'
'systems_'
'start_'
'soll_'
'particularly_'
'give_'
'dort_'
'conditions_'
'children_'
'away_'
'ago_'
']] _'
'With_'
'Bei_'
'2005_'
'risk_'
'recent_'
'position_'
'local_'
'line_'
'led_'
'decision_'
'dabei_'
'bin_'
'What_'
'P_'
'os_'
'könnten_'
'investment_'
'second_'
'rules_'
'pro_'
'especially_'
'certain_'
'2007_'
'using_'
'role_'
'him_'
'bringen_'
'yet_'
'nt_'
'ischen_'
'f_'
'Zusammenarbeit_'
'low_'
'done_'
'create_'
'wirtschaftlichen_'
'unseren_'
'terms_'
'staff_'
'short_'
'others_'
'once_'
'necessary_'
'innerhalb_'
'governments_'
'companies_'
' & _'
'öffentlichen_'
'legal_'
'ins_'
'going_'
'erreichen_'
'\u_'
'Community_'
'though_'
'tax_'
'policies_'
'off_'
'central_'
'ble_'
'b_'
'Um_'
'Rahmen_'
'rates_'
'least_'
'key_'
'kan_'
'century_'
'Vorschlag_'
'One_'
'German_'
'2001_'
'Region_'
'Frauen_'
' $_'
'together_'
'fully_'
'Auf_'
'needed_'
'location_'
'kein_'
'ensure_'
'Weg_'
'Seite_'
'Europas_'
'Er_'
'present_'
'nden_'
'men_'
'aller_'
'M_'
'However_'
'third_'
'region_'
'alles_'
'age_'
'100_'
'whole_'
'modern_'
'fast_'
'chen_'
'beiden_'
'Stadt_'
'O_'
'Fragen_'
'working_'
'states_'
'ry_'
'really_'
'meisten_'
'costs_'
'2004_'
' _'
'value_'
'remain_'
'past_'
'leaders_'
'increase_'
'excellent_'
'25_'
' ..._'
'reform_'
'control_'
'Wirtschaft_'
'vielen_'
'meine_'
'keit_'
'ja_'
'cost_'
'aid_'
'Millionen_'
'G_'
'French_'
'welche_'
'until_'
'sowohl_'
'les_'
'ihnen_'
'hinaus_'
'difficult_'
'capital_'
'account_'
'September_'
'stellt_'
'single_'
'nd_'
'home_'
'early_'
'darüber_'
'Zukunft_'
'Seiten_'
'Leben_'
'Landes_'
'Indeed_'
' % _'
'sei_'
'rn_'
'kommt_'
'Wachstum_'
'UN_'
'society_'
'several_'
'never_'
'land_'
'ever_'
'europäische_'
'cooperation_'
'centre_'
'Beispiel_'
'2003_'
'.”_'
'wissen_'
'wirklich_'
'un_'
'something_'
'prices_'
'income_'
'greater_'
'ern_'
'efforts_'
'demand_'
'N_'
'Kinder_'
'Grund_'
'Bush_'
'production_'
'meiner_'
'matter_'
'longer_'
'ieren_'
'food_'
'aufgrund_'
'Recht_'
'ted_'
'progress_'
'name_'
'internationalen_'
'ic_'
'water_'
'simply_'
'shall_'
'protection_'
'having_'
'em_'
'banks_'
'approach_'
'almost_'
'Regierungen_'
'Kosten_'
'products_'
'environment_'
'Mrs_'
'Group_'
'weiterhin_'
'weit_'
'reason_'
'möchten_'
'interests_'
'dessen_'
'democracy_'
'billion_'
'besser_'
'No_'
'include_'
'euro_'
'enough_'
'ar_'
'among_'
'Dollar_'
'special_'
'side_'
'personal_'
'look_'
'ity_'
'ische_'
'ions_'
'hin_'
'gentlemen_'
'democratic_'
'darin_'
'daher_'
'Zusammenhang_'
'International_'
'After_'
' '
'taking_'
'regard_'
'nationalen_'
'indem_'
'ihn_'
'entfernt_'
'besonders_'
'bedeutet_'
'unterstützen_'
'resources_'
'likely_'
'hand_'
'following_'
'State_'
'Parlaments_'
'Iraq_'
'Chinese_'
'wish_'
'wichtig_'
'th_'
'regional_'
'ous_'
'nichts_'
'management_'
'ende_'
'R_'
'2002_'
'views_'
'sicher_'
'she_'
'resolution_'
'peace_'
'offer_'
'keinen_'
'ihm_'
'history_'
'halten_'
'ens_'
'enden_'
'developing_'
'befindet_'
'Vereinigten_'
'India_'
'Ansicht_'
'research_'
'programme_'
'period_'
'macht_'
'ihrem_'
'fiscal_'
'breakfast_'
'bieten_'
'West_'
'Verfügung_'
'Russland_'
'16_'
'words_'
'vielleicht_'
'things_'
'site_'
'results_'
'respect_'
'left_'
'education_'
'above_'
'Möglichkeit_'
'Man_'
'Lösung_'
'L_'
'show_'
'proposals_'
'points_'
'plan_'
'lichen_'
'lead_'
'gute_'
'etc_'
'economies_'
'call_'
'Fraktion_'
'An_'
'2010_'
'14_'
'poor_'
'ia_'
'experience_'
'building_'
'bleiben_'
'Richtlinie_'
'Obama_'
'East_'
'Daten_'
'18_'
'wenig_'
'verschiedenen_'
'program_'
'nehmen_'
'ive_'
'industry_'
'ierung_'
'iert_'
'daran_'
'By_'
'24_'
'standards_'
'specific_'
'seinem_'
'ls_'
'list_'
'levels_'
'Service_'
'November_'
'Milliarden_'
'Central_'
'Africa_'
';_'
'thus_'
'schaffen_'
'play_'
'near_'
'member_'
'known_'
'family_'
'Strategie_'
'Kommissar_'
'Kollegen_'
'positive_'
'nächsten_'
'makes_'
'liche_'
'general_'
'fall_'
'directive_'
'Thema_'
'Situation_'
'Investitionen_'
'60_'
'21_'
'– _'
'welcome_'
'various_'
'ty_'
'sollen_'
'reforms_'
'projects_'
'erste_'
'eren_'
'easy_'
'adopted_'
'Ziele_'
'U_'
'Geschichte_'
'Dieser_'
'Demokratie_'
'40_'
'workers_'
'true_'
'schen_'
'related_'
'proposed_'
'pay_'
'let_'
'hatten_'
'ask_'
'address_'
'South_'
'Minister_'
'Macht_'
'British_'
'transport_'
'technology_'
'strong_'
'strategy_'
'stand_'
'software_'
'sch_'
'run_'
'ra_'
'questions_'
'online_'
'nen_'
'language_'
'groups_'
'force_'
'feel_'
'deal_'
'climate_'
'beispielsweise_'
'Frankreich_'
'population_'
'll_'
'leading_'
'gilt_'
'freedom_'
'found_'
'Our_'
'Krise_'
'GDP_'
'Form_'
'Auswirkungen_'
'19_'
'ya_'
'version_'
'user_'
'themselves_'
'share_'
'seen_'
'remains_'
'rapporteur_'
'months_'
'higher_'
'gehen_'
'eurozone_'
'effective_'
'due_'
'created_'
'ben_'
'authorities_'
'agree_'
'Paris_'
'Gemeinschaft_'
'Da_'
'&_'
'à_'
'ting_'
'times_'
'solution_'
'solche_'
'schnell_'
'sche_'
'recently_'
'ladies_'
'impact_'
'gemacht_'
'fundamental_'
'either_'
'allow_'
'across_'
'Restaurant_'
'Krieg_'
'Hilfe_'
'w_'
'town_'
'sen_'
'ren_'
'party_'
'nuclear_'
'media_'
'hen_'
'funds_'
'forward_'
'ert_'
'direkt_'
'bekannt_'
'Western_'
'Ukraine_'
'Treaty_'
'Meinung_'
'Grundlage_'
'Dieses_'
'towards_'
'natürlich_'
'environmental_'
'care_'
'big_'
'amendments_'
'Hotels_'
'Erfolg_'
'Beziehungen_'
'Alle_'
'station_'
'opinion_'
'km_'
'jeder_'
'deutlich_'
'cultural_'
'behalf_'
'Programm_'
'Mittel_'
'Madam_'
'London_'
'Institutionen_'
'Ihr_'
'serious_'
'safety_'
'pages_'
'opportunity_'
'natural_'
'light_'
'later_'
'genau_'
'framework_'
'changes_'
'bzw_'
'X_'
'Indien_'
'Greece_'
'young_'
'top_'
'sure_'
'setzen_'
'required_'
'oil_'
'internationale_'
'heit_'
'field_'
'currently_'
'community_'
'arbeiten_'
'Some_'
'Gesellschaft_'
'traditional_'
'subject_'
'significant_'
'reduce_'
'hätte_'
'half_'
'focus_'
'enjoy_'
'content_'
'concerns_'
'ally_'
'Of_'
'Geld_'
'F_'
'EUR_'
'Bevölkerung_'
'Asia_'
'13_'
'wichtige_'
'via_'
'son_'
'sea_'
'parties_'
'nde_'
'minutes_'
'improve_'
'heart_'
'ebenfalls_'
'attention_'
'Schutz_'
'Italy_'
'whose_'
'sense_'
'majority_'
'individual_'
'house_'
'competition_'
'anti_'
'Menschenrechte_'
'Entscheidung_'
'BIP_'
')_'
'zurück_'
'upon_'
'relations_'
'product_'
'poverty_'
'inflation_'
'hours_'
'game_'
'four_'
'forces_'
'consider_'
'cases_'
'air_'
'V_'
'Members_'
'Irak_'
'Interesse_'
'1999_'
' . _'
'wirtschaftliche_'
'total_'
'thank_'
'rise_'
'restaurant_'
'range_'
'ors_'
'nothing_'
'los_'
'legislation_'
'kind_'
'huge_'
'gab_'
'developed_'
'che_'
'beautiful_'
'actually_'
'Rates_'
'Aus_'
'ways_'
'text_'
'sprechen_'
'provided_'
'obwohl_'
'nutzen_'
'hard_'
'deshalb_'
'concerned_'
'company_'
'comes_'
'clearly_'
'addition_'
'Mitglieder_'
'"._'
'unterstützt_'
'understand_'
'statt_'
'stark_'
'rt_'
'person_'
'ma_'
'jobs_'
'gerade_'
'five_'
'facilities_'
'face_'
'employment_'
'ebenso_'
'co_'
'bleibt_'
'Turkey_'
'Spain_'
'Richtung_'
'Ebene_'
'Deshalb_'
'spending_'
'size_'
'si_'
'scheint_'
'regime_'
'quite_'
'potential_'
'outside_'
'move_'
'living_'
'ging_'
'everything_'
'date_'
'certainly_'
'below_'
'art_'
'appropriate_'
'Windows_'
'UK_'
'Tatsache_'
'TV_'
'Prozent_'
'Nähe_'
'M'
'Chinas_'
'Bezug_'
'unserem_'
'thing_'
'success_'
'stability_'
'regulation_'
'principle_'
'keyword_'
'jeden_'
'importance_'
'gesagt_'
'führt_'
'conflict_'
'ck_'
'ca_'
'bring_'
'bereit_'
'add_'
'Kampf_'
'Ihrer_'
'Haus_'
'Grenzen_'
' : _'
'é_'
'seems_'
'prevent_'
'parts_'
'model_'
'meeting_'
'keep_'
'ie_'
'gemeinsame_'
'check_'
'Während_'
'Vor_'
'Umsetzung_'
'Jahres_'
'Even_'
'April_'
',” _'
'"_'
'unser_'
'ste_'
'self_'
'pool_'
'nämlich_'
'ness_'
'internal_'
'idea_'
'globalen_'
'former_'
'doing_'
'credit_'
'application_'
'Dienstleistungen_'
'17_'
'weltweit_'
'weiß_'
'violence_'
'vergangenen_'
'tes_'
'step_'
'rule_'
'politik_'
'na_'
'job_'
'indeed_'
'benefits_'
'Office_'
'II_'
'Berlin_'
' -_'
'zusammen_'
'verwendet_'
'turn_'
'table_'
'return_'
'provides_'
'ner_'
'lot_'
'ig_'
'held_'
'existing_'
'exchange_'
'elections_'
'dürfen_'
'ds_'
'complete_'
'civil_'
'amerikanischen_'
'Schritt_'
'La_'
'23_'
'“, _'
'ziehen_'
'ze_'
'wide_'
'red_'
'monetary_'
'involved_'
'integration_'
'emerging_'
'days_'
'dar_'
'computer_'
'clean_'
'car_'
'ary_'
'alten_'
'along_'
'Zugang_'
'War_'
'Liste_'
'January_'
'Ergebnisse_'
'Bedingungen_'
'Afghanistan_'
'wichtigen_'
'verhindern_'
'took_'
'spielen_'
'simple_'
'response_'
'require_'
'project_'
'mean_'
'lässt_'
'liegen_'
'len_'
'heißt_'
'handelt_'
'growing_'
'essential_'
'erreicht_'
'einigen_'
'built_'
'balance_'
'Tag_'
'Staat_'
'Regionen_'
'Party_'
'Interessen_'
'Ausschuss_'
'", _'
' ( _'
'weiteren_'
'values_'
'space_'
'nie_'
'instead_'
'fünf_'
'file_'
'erst_'
'angesichts_'
'W_'
'Von_'
'Verantwortung_'
'Tatsächlich_'
'North_'
'Debatte_'
'responsible_'
'reach_'
'protect_'
'night_'
'ling_'
'je_'
'ings_'
'ige_'
'highly_'
'gleichzeitig_'
'effect_'
'directly_'
'del_'
'challenge_'
'center_'
'brauchen_'
'York_'
'Türkei_'
'San_'
'Reformen_'
'Personen_'
'Park_'
'Möglichkeiten_'
'Moreover_'
'Initiative_'
'F'
'Ergebnis_'
'Aussprache_'
' ''_'
'ying_'
'verfügt_'
'tragen_'
'reviews_'
'regions_'
'perhaps_'
'net_'
'live_'
'lange_'
'increased_'
'design_'
'context_'
'chinesischen_'
'besten_'
'bed_'
'according_'
'While_'
'T'
'Preis_'
'My_'
'Government_'
'Eurozone_'
'Bereichen_'
'Außerdem_'
'wichtigsten_'
'sub_'
'six_'
'road_'
'rest_'
'opportunities_'
'negative_'
'lediglich_'
'konnte_'
'klar_'
'image_'
'features_'
'einzelnen_'
'capacity_'
'came_'
'body_'
'bank_'
'activities_'
'Zum_'
'Zu_'
'Software_'
'Seit_'
'Punkt_'
'Booking_'
'Allerdings_'
'�_'
'wären_'
'week_'
'unternehmen_'
'ta_'
'sozialen_'
'soon_'
'rich_'
'post_'
'oft_'
'neu_'
'negotiations_'
'helfen_'
'fight_'
'fen_'
'extremely_'
'contains_'
'cause_'
'betrifft_'
'became_'
'asked_'
'achieve_'
'Z'
'Verfassung_'
'Ressourcen_'
'Politiker_'
'Hier_'
'City_'
'“._'
'v'
'performance_'
'network_'
'meet_'
'lives_'
'industrial_'
'ideal_'
'hätten_'
'favour_'
'ent_'
'decisions_'
'beach_'
'National_'
'Ihren_'
'Großbritannien_'
'Fortschritte_'
'Court_'
'-, _'
'verbunden_'
'v_'
'union_'
'standard_'
'seines_'
'receive_'
'ken_'
'included_'
'hold_'
'friendly_'
'findet_'
'eher_'
'develop_'
'designed_'
'complex_'
'board_'
'administration_'
'accept_'
'Wahl_'
'Präsidenten_'
'Middle_'
'G'
'From_'
'Entscheidungen_'
'Banken_'
'500_'
' ‘_'
'wegen_'
'verschiedene_'
'tatsächlich_'
'status_'
'started_'
'responsibility_'
'official_'
'nature_'
'moment_'
'leben_'
'late_'
'glaube_'
'events_'
'established_'
'darf_'
'customers_'
'culture_'
'comfortable_'
'ant_'
'ability_'
'] _'
'Yet_'
'Viele_'
'Gruppe_'
'Darüber_'
'Aufgabe_'
'Abstimmung_'
'200_'
'. - (_'
'walk_'
'training_'
'style_'
'similar_'
'nor_'
'labor_'
'kleinen_'
'implementation_'
'igen_'
'gemeinsamen_'
'gegeben_'
'despite_'
'creating_'
'card_'
'behind_'
'amount_'
'Wert_'
'Verbindung_'
'Today_'
'Rechte_'
'Platz_'
'More_'
'Mehrheit_'
'Markt_'
'Enterprise_'
'Einfluss_'
'Armut_'
'80_'
'versuchen_'
'throughout_'
'terrorism_'
'stop_'
'soziale_'
'risks_'
'reasons_'
'previous_'
'option_'
'notwendig_'
'möglicherweise_'
'largest_'
'increasingly_'
'ian_'
'guten_'
'geführt_'
'ful_'
'event_'
'derzeit_'
'cy_'
'commitment_'
'Website_'
'Vorschläge_'
'V'
'Presidency_'
'Lösungen_'
'Kunden_'
'June_'
'Dabei_'
'Bemühungen_'
'Bar_'
'Antwort_'
'Abkommen_'
'70_'
' / _'
'zeigen_'
'werde_'
'wahrscheinlich_'
'visit_'
'video_'
'type_'
'sound_'
'purpose_'
'practice_'
'politics_'
'lack_'
'ker_'
'jede_'
'ini_'
'ht_'
'gesamten_'
'gehören_'
'finance_'
'entwickeln_'
'domestic_'
'committee_'
'choice_'
'cal_'
'basic_'
'Version_'
'Uhr_'
'Tage_'
'Ort_'
'Mal_'
'Durch_'
'Druck_'
'vier_'
'unemployment_'
'stärker_'
'structural_'
'shown_'
'request_'
'reality_'
'popular_'
'nice_'
'lower_'
'knowledge_'
'ke_'
'guests_'
'goods_'
'globale_'
'dollar_'
'direct_'
'decades_'
'benefit_'
'befinden_'
'alone_'
'X'
'Nationen_'
'K_'
'How_'
'H'
'Gewalt_'
'First_'
'Behörden_'
'Anwendung_'
'Am_'
'90_'
'zone_'
'zeit_'
'zeigt_'
'x'
'wohl_'
'untuk_'
'supported_'
'setting_'
'pressure_'
'ngen_'
'negara_'
'nbsp_'
'music_'
'lost_'
'latest_'
'il_'
'hohen_'
'ground_'
'gemeinsam_'
'est_'
'equal_'
'effects_'
'double_'
'decided_'
'challenges_'
'ces_'
'bad_'
'anderer_'
'although_'
'Gebiet_'
'E'
'B'
'27_'
'..." _'
'verstehen_'
'toward_'
'speed_'
'scale_'
'rising_'
'partners_'
'news_'
'matters_'
'lle_'
'ität_'
'internet_'
'erforderlich_'
'enable_'
'currency_'
'bus_'
'answer_'
'allowed_'
'agreements_'
'Wort_'
'Spiel_'
'Security_'
'S'
'Many_'
'Hand_'
'General_'
'August_'
'Amerika_'
'. _'
'%._'
'völlig_'
'unique_'
'takes_'
'ss_'
'seem_'
'recht_'
'presented_'
'm'
'looking_'
'infrastructure_'
'häufig_'
'größten_'
'gestellt_'
'gar_'
'final_'
'eigene_'
'darum_'
'd'
'consequences_'
'closed_'
'cities_'
'border_'
'beginning_'
'Verhandlungen_'
'Verfahren_'
'Russian_'
'Reform_'
'Only_'
'Kosovo_'
'Korea_'
'Hinblick_'
'Funktion_'
'Europeans_'
'English_'
'Einsatz_'
'Bild_'
'Berichterstatter_'
'Bekämpfung_'
'ur_'
'try_'
'thought_'
'send_'
'schließlich_'
'rund_'
'requires_'
'please_'
'mal_'
'mail_'
'limited_'
'leadership_'
'increasing_'
'großer_'
'gas_'
'fördern_'
'enlargement_'
'election_'
'distribution_'
'digital_'
'cs_'
'consumer_'
'con_'
'categories_'
'au_'
'anything_'
'additional_'
'Zahl_'
'W'
'R'
'Partei_'
'Nutzung_'
'Now_'
'I'
'Forschung_'
'Blick_'
'Barcelona_'
'Artikel_'
'Arab_'
'Afrika_'
'160_'
'verwenden_'
'verbessern_'
'steps_'
'president_'
'perfect_'
'opposition_'
'note_'
'nahe_'
'ms_'
'mentioned_'
'leader_'
'hoch_'
'guest_'
'größte_'
'ganzen_'
'front_'
'failure_'
'ermöglichen_'
'entwickelt_'
'enthalten_'
'consumers_'
'completely_'
'agenda_'
'Y_'
'St_'
'Schlusselwortern_'
'May_'
'Kraft_'
'Kingdom_'
'Folgen_'
'Finally_'
'Datei_'
'Damit_'
'D'
'Bildung_'
'Ansatz_'
'Anfang_'
' " _'
'öffentliche_'
'test_'
'strategic_'
'programmes_'
'produce_'
'plans_'
'p'
'lt_'
'larger_'
'konnten_'
'jedem_'
'initiative_'
'influence_'
'ihres_'
'hohe_'
'guarantee_'
'ger_'
'gehört_'
'fragen_'
'famous_'
'enthält_'
'effort_'
'deficit_'
'danken_'
'considered_'
'cht_'
'brought_'
'bisher_'
'bestehen_'
'allows_'
'University_'
'Umwelt_'
'Terrorismus_'
'Produkte_'
'Obwohl_'
'Nations_'
'Meer_'
'Jahrhunderts_'
'Herren_'
'Here_'
'Handel_'
'Gesundheit_'
'Gelegenheit_'
'Daher_'
'Americans_'
'22_'
'zudem_'
'zehn_'
'web_'
'voted_'
'ves_'
'treatment_'
'submitted_'
'später_'
'shows_'
'schaft_'
'procedure_'
'places_'
'original_'
'mind_'
'ler_'
'kaum_'
'jedes_'
'ier_'
'i'
'fest_'
'erster_'
'damage_'
'coming_'
'choose_'
'advanced_'
'act_'
'achieved_'
'accommodation_'
'Stelle_'
'Reihe_'
'Regeln_'
'Mitglied_'
'Minuten_'
'Dialog_'
'Debian_'
'Dazu_'
'Dank_'
'Damen_'
'CD_'
'Angesichts_'
'Abgeordneten_'
'45_'
'28_'
'übernachten_'
'ändern_'
'treffen_'
'ton_'
'tions_'
'speak_'
'solutions_'
'reached_'
'probably_'
'partner_'
'ments_'
'massive_'
'lose_'
'includes_'
'gleichen_'
'function_'
'ft_'
'forms_'
'f'
'extent_'
'don_'
'critical_'
'concerning_'
'beyond_'
'bekommen_'
'becoming_'
'base_'
'ate_'
'actions_'
'Zudem_'
'Zentrum_'
'Wann_'
'Since_'
'Schaffung_'
'Portugal_'
'Parteien_'
'Pakistan_'
'P'
'Osten_'
'NATO_'
'K'
'Förderung_'
'Erklärung_'
'Britain_'
'Ausgaben_'
'Aufmerksamkeit_'
'zen_'
'worked_'
'threat_'
'sustainable_'
'study_'
'somit_'
'situated_'
'setzt_'
'ses_'
'secure_'
'school_'
'restaurants_'
'prepared_'
'ping_'
'package_'
'options_'
'objective_'
'month_'
'mehrere_'
'hoffe_'
'h'
'gs_'
'gebracht_'
'fair_'
'eben_'
'dadurch_'
'confidence_'
'concern_'
'charge_'
'bevor_'
'aware_'
'aktuellen_'
'agreed_'
'Wasser_'
'WTO_'
'Unsere_'
'Text_'
'Spanien_'
'Rights_'
'Prozess_'
'Märkte_'
'Juni_'
'Gefahr_'
'During_'
'Development_'
'1791_'
' [_'
'äußerst_'
'Änderungsantrag_'
'wrong_'
'works_'
'weapons_'
'successful_'
'stage_'
'staatlichen_'
'quickly_'
'providing_'
'leicht_'
'independent_'
'implemented_'
'gleich_'
'gewährleisten_'
'geschaffen_'
'generation_'
'funding_'
'files_'
'ermöglicht_'
'entire_'
'effectively_'
'consumption_'
'annual_'
'allein_'
'active_'
'Werte_'
'Server_'
'Schließlich_'
'People_'
'O'
'Natürlich_'
'Mediterranean_'
'Latin_'
'Kontrolle_'
'Italian_'
'Israeli_'
'Hamas_'
'DE_'
'Beginn_'
'Ausschusses_'
'? _'
'300_'
', “_'
'Öffentlichkeit_'
'website_'
'voll_'
'tell_'
'team_'
'students_'
'sometimes_'
'sed_'
'safe_'
'richtig_'
'provisions_'
'programs_'
'principles_'
'office_'
'oben_'
'movement_'
'ien_'
'geworden_'
'getting_'
'genug_'
'follow_'
'falls_'
'external_'
'caused_'
'build_'
'beitragen_'
'beide_'
'began_'
'Wettbewerb_'
'Web_'
'Services_'
'Revolution_'
'IWF_'
'Heute_'
'Gästebewertungen_'
'Griechenland_'
'Furthermore_'
'Fed_'
'Ausdruck_'
'Amerikas_'
'1781_'
'wenige_'
'verfügen_'
'ure_'
'technical_'
'supply_'
'solchen_'
'server_'
'paid_'
'nimmt_'
'mus_'
'lines_'
'ko'
'ja'
'item_'
'insgesamt_'
'hinsichtlich_'
'extra_'
'emissions_'
'doubt_'
'demokratischen_'
'death_'
'creation_'
'contact_'
'communication_'
'child_'
'changed_'
'begin_'
'Tagen_'
'Qualität_'
'Präsidentin_'
'Programme_'
'Position_'
'Notwendigkeit_'
'Just_'
'Japanese_'
'Führung_'
'Frieden_'
'Erweiterung_'
'December_'
'Affairs_'
'zahlen_'
'won_'
'users_'
'trotz_'
'sorgen_'
'sign_'
'ring_'
'practical_'
'offered_'
'mobile_'
'minister_'
'mag_'
'ks_'
'kosten_'
'ism_'
'immigration_'
'getan_'
'freien_'
'failed_'
'expected_'
'einzige_'
'construction_'
'book_'
'bitte_'
'ausgestattet_'
'aspects_'
'ang_'
'Zeitpunkt_'
'Zeiten_'
'Wahlen_'
'Vertrag_'
'Risiken_'
'Nur_'
'March_'
'Jahrhundert_'
'J'
'Herausforderungen_'
'Globalisierung_'
'Familie_'
'C'
'weise_'
'vermeiden_'
'trust_'
'thousands_'
'sta'
'requirements_'
'productivity_'
'plus_'
'neben_'
'links_'
'las_'
'lang_'
'ideas_'
'helpful_'
'giving_'
'folgt_'
'folgen_'
'export_'
'expect_'
'erneut_'
'dari_'
'connection_'
'concept_'
'code_'
'ber_'
'banking_'
'average_'
'attempt_'
'apply_'
'apartment_'
'aim_'
'affected_'
'Stunden_'
'Schulden_'
'Organisation_'
'Neu'
'NEW_'
'N'
'Lissabon_'
'Lisbon_'
'Linux_'
'Infrastruktur_'
'Information_'
'Industrie_'
'IMF_'
'Höhe_'
'His_'
'Herzen_'
'Herausforderung_'
'Fund_'
'Free_'
'Fehler_'
'Dinge_'
'DVD_'
'Convention_'
'Centre_'
'1990_'
' ) _'
'zweite_'
'weder_'
'ue_'
'technologies_'
'spend_'
'speech_'
'source_'
'search_'
'regards_'
'reduction_'
'quiet_'
'promote_'
'produced_'
'parking_'
'objectives_'
'nationale_'
'ley_'
'leave_'
'joint_'
'illegal_'
'goal_'
'gewesen_'
'genannten_'
'erwartet_'
'equipped_'
'einschließlich_'
'durchgeführt_'
'cut_'
'conference_'
'commercial_'
'applications_'
'angenommen_'
'akan_'
'airport_'
'Verwendung_'
'Vertrauen_'
'Vergangenheit_'
'Unter_'
'Tat_'
'Schwierigkeiten_'
'Room_'
'Palestinian_'
'Mitte_'
'L'
'Kultur_'
'John_'
'Italien_'
'Ihrem_'
'IT_'
'Great_'
'Frühstück_'
'Freiheit_'
'Flughafen_'
'Beitrag_'
'Arbeitnehmer_'
'. '
'“_'
'Änderungsanträge_'
' % _'
'zweiten_'
'zunächst_'
'written_'
'weltweiten_'
'wealth_'
'ver_'
'usually_'
'tic_'
't'
'story_'
'stock_'
'statement_'
'stable_'
'received_'
'read_'
'priority_'
'politischer_'
'players_'
'nis_'
'ni_'
'n'
'morning_'
'message_'
'map_'
'join_'
'jene_'
'j_'
'ierte_'
'historical_'
'hinter_'
'head_'
'gesamte_'
'genommen_'
'fear_'
'evidence_'
'erung_'
'erhöhen_'
'difference_'
'dialogue_'
'carried_'
'campaign_'
'cally_'
'ans_'
'alternative_'
'added_'
'Woche_'
'Verbraucher_'
'Themen_'
'Raum_'
'Putin_'
'Please_'
'März_'
'Let_'
'July_'
'Its_'
'Greek_'
'Erstens_'
'EN_'
'Diskussion_'
'Dezember_'
'Club_'
'Although_'
'2013_'
'.'
'--_'
' "..._'
'zentrale_'
'word_'
'wobei_'
'target_'
'sectors_'
'scientific_'
'sagte_'
'reports_'
'privaten_'
'on'
'nya_'
'island_'
'instruments_'
'fishing_'
'fallen_'
'erklären_'
'era_'
'e'
'draft_'
'distance_'
'ding_'
'class_'
'borders_'
'benötigen_'
'avoid_'
'aufgenommen_'
'appears_'
'Vereinten_'
'Such_'
'Station_'
'So'
'Prime_'
'Poland_'
'Oktober_'
'Microsoft_'
'Mai_'
'Integration_'
'Haushalts'
'Gründen_'
'Federal_'
'Energie_'
'Center_'
'CO2_'
'Besuch_'
'Bad_'
'Anti'
'35_'
'., _'
'zumindest_'
'ys_'
'writing_'
'wants_'
'trading_'
'suggest_'
'schützen_'
'saying_'
'save_'
'press_'
'politicians_'
'onen_'
'officials_'
'neuer_'
'leider_'
'learn_'
'isch_'
'historischen_'
'gefunden_'
'followed_'
'financing_'
'farmers_'
'fahren_'
'expensive_'
'erwarten_'
'erklärt_'
'ere_'
'equipment_'
'encourage_'
'drive_'
'circumstances_'
'chance_'
'bringt_'
'bit_'
'bestimmten_'
'authority_'
'agricultural_'
'Trade_'
'Therefore_'
'Ro'
'Opfer_'
'Le_'
'Konferenz_'
'Ko'
'Ireland_'
'Einkommen_'
'Einigung_'
'Do_'
'Directive_'
'Design_'
'Constitution_'
'Brexit_'
'Bitte_'
'Bestimmungen_'
'A'
': '
'29_'
''' _'
'Änderungen_'
'za'
'wichtiger_'
'variety_'
'ut_'
'types_'
'trying_'
'tor_'
'structure_'
'star_'
'schwierig_'
'saving_'
'professional_'
'opening_'
'nachdem_'
'method_'
'maintain_'
'linked_'
'legislative_'
'largely_'
'kam_'
'impossible_'
'hour_'
'helped_'
'happen_'
'ganze_'
'frei_'
'feature_'
'express_'
'everyone_'
'erzielt_'
'erfüllen_'
'entspricht_'
'discussion_'
'direction_'
'dengan_'
'decline_'
'cuts_'
'compromise_'
'compared_'
'businesses_'
'außerhalb_'
'attacks_'
'applied_'
'amerikanische_'
'acht_'
'Tagesordnung_'
'Systems_'
'Syria_'
'Sicht_'
'Sea_'
'Punkte_'
'Preise_'
'PC_'
'Nutzen_'
'Most_'
'Maße_'
'Mail_'
'Küche_'
'J_'
'Islam_'
'Inter'
'H_'
'Ebenso_'
'Co'
'Bundes'
'Austria_'
'31_'
'3'
'и'
'ß_'
'wider_'
'wer_'
'waste_'
'uses_'
'unable_'
'train_'
'task_'
'stets_'
'ssen_'
'sides_'
'served_'
'series_'
'seek_'
'rten_'
'rd_'
'powerful_'
'possibility_'
'policymakers_'
'police_'
'pleased_'
'phone_'
'path_'
'pass_'
'neues_'
'networks_'
'mention_'
'meinen_'
'meinem_'
'mein_'
'material_'
'legen_'
'investors_'
'inter'
'insurance_'
'initiatives_'
'glauben_'
'g'
'friends_'
'erte_'
'entsprechende_'
'efficient_'
'degree_'
'comprehensive_'
'competitiveness_'
'braucht_'
'bereich_'
'b'
'ations_'
'appear_'
'[_'
'Westen_'
'Unter'
'Umgebung_'
'Star_'
'Site_'
'Saudi_'
'Not_'
'Hoffnung_'
'Guest_'
'Grand_'
'Einführung_'
'Den_'
'Berichte_'
'Auffassung_'
'Airport_'
'African_'
': "_'
'2015_'
'1998_'
'* _'
'). _'
'%, _'
'überzeugt_'
'übernehmen_'
'® _'
'zunehmend_'
'zed_'
'wing_'
'wanted_'
'votes_'
'unten_'
'ums_'
'travel_'
'tabled_'
'solidarity_'
'sieht_'
'section_'
'schwer_'
'review_'
'relevant_'
'reichen_'
'reducing_'
'recovery_'
'raise_'
'profitieren_'
'presence_'
'played_'
'permanent_'
'park_'
'output_'
'ory_'
'namely_'
'mission_'
'minute_'
'kleine_'
'k'
'holiday_'
'he'
'gt_'
'größere_'
'genießen_'
'gekommen_'
'gain_'
'erfolgreich_'
'denke_'
'dangerous_'
'cher_'
'ch'
'c'
'britischen_'
'attack_'
'akzeptieren_'
'Wirtschaftswachstum_'
'Verbesserung_'
'Technologien_'
'Technologie_'
'Spanish_'
'Republik_'
'Regierungs'
'Rechts'
'Public_'
'Personal_'
'Person_'
'Management_'
'Linie_'
'High_'
'George_'
'Fällen_'
'Finanzierung_'
'Financial_'
'Du'
'Costa_'
'Code_'
'Christian_'
'Chance_'
'According_'
', '
'überall_'
'ze'
'white_'
'weeks_'
'weak_'
'versucht_'
'unbe'
'treten_'
'tra'
'tools_'
'ship_'
'serve_'
'saw_'
'relationship_'
'regulations_'
'ready_'
'procedures_'
'ned_'
'modernen_'
'medical_'
'loss_'
'kannst_'
'improving_'
'immediately_'
'hotels_'
'hands_'
'gives_'
'gezeigt_'
'forced_'
'floor_'
'establish_'
'ess_'
'draw_'
'developments_'
'derartige_'
'demands_'
'deine_'
'continues_'
'committed_'
'break_'
'bessere_'
'atmosphere_'
'assistance_'
'Zweifel_'
'Why_'
'Verordnung_'
'U'
'Tu'
'Status_'
'Solidarität_'
'Social_'
'Secondly_'
'Rooms_'
'Restaurants_'
'Republic_'
'RE'
'Präsidentschaft_'
'Produktion_'
'Nicht_'
'Museum_'
'Gegensatz_'
'Gaza_'
'Forschungs'
'Einige_'
'Economic_'
'Despite_'
'Bereiche_'
'Auswahl_'
'Asian_'
'Amerikaner_'
': „_'
'2'
'Änderung_'
'zuletzt_'
'worse_'
'warum_'
'walking_'
'ungs'
'tu'
'talk_'
'starke_'
'sites_'
'shift_'
'sektor_'
'seeking_'
'sechs_'
'sa_'
's'
'rit'
'regarding_'
'reference_'
'powers_'
'plant_'
'per'
'paar_'
'overall_'
'over'
'nearly_'
'nations_'
'multi_'
'modified_'
'moderne_'
'middle_'
'met_'
'lag_'
'kurz_'
'j'
'investments_'
'instrument_'
'ine_'
'immediate_'
'ial_'
'hol'
'hoch'
'hin'
'highest_'
'grundlegende_'
'gesehen_'
'geschlossen_'
'fordern_'
'families_'
'facing_'
'exports_'
'enter_'
'eindeutig_'
'eigentlich_'
'efficiency_'
'diejenigen_'
'deutschen_'
'described_'
'defense_'
'darstellt_'
'daily_'
'core_'
'contribution_'
'contrast_'
'continued_'
'competitive_'
'betrachtet_'
'becomes_'
'bare_'
'bar'
'bald_'
'außer_'
'ad_'
'Zweitens_'
'Waffen_'
'Street_'
'Schritte_'
'Projekt_'
'Markt'
'Juli_'
'Januar_'
'Idee_'
'Haltung_'
'Geschäfts'
'Gesamt'
'ECB_'
'Conference_'
'Bre'
'Beschäftigung_'
'Article_'
'Anzahl_'
'Amsterdam_'
'Aktivitäten_'
'„_'
'с'
'  _'
'zahlreiche_'
'vorgeschlagen_'
'transparent_'
'told_'
'separate_'
'screen_'
'running_'
'round_'
'respond_'
'religious_'
'refer_'
'reading_'
'rapid_'
'pursue_'
'property_'
'priorities_'
'precisely_'
'pre_'
'outcome_'
'nächste_'
'nation_'
'moral_'
'medium_'
'mainly_'
'lösen_'
'llen_'
'limit_'
'leisten_'
'lebih_'
'jeweiligen_'
'introduced_'
'intended_'
'individuals_'
'historic_'
'green_'
'fire_'
'fine_'
'establishment_'
'entscheiden_'
'emphasis_'
'ely_'
'el'
'easily_'
'documents_'
'decade_'
'da'
'crucial_'
'continent_'
'carry_'
'bewusst_'
'bathroom_'
'alte_'
'addressed_'
'Vielfalt_'
'Unterkategorien_'
'Su'
'Spa_'
'Sorge_'
'Resort_'
'October_'
'Nachfrage_'
'Muslim_'
'Medien_'
'Lo'
'Je'
'Hälfte_'
'Google_'
'Forum_'
'Erde_'
'EZB_'
'Bürgern_'
'Also_'
'AIDS_'
'4'
'32_'
'26_'
'.)_'
'überhaupt_'
'ät_'
'äre_'
'Öl'
'zeit'
'went_'
'vital_'
'verantwortlich_'
've'
'useful_'
'territory_'
'tahun_'
'sufficient_'
'sts_'
'ste'
'sse_'
'says_'
'res_'
'release_'
'reduced_'
'raised_'
'programm_'
'practices_'
'planning_'
'pi'
'organisation_'
'muß_'
'minimum_'
'meines_'
'lly_'
'limits_'
'lernen_'
'ku'
'keiten_'
'jährlich_'
'igkeit_'
'heard_'
'halte_'
'grounds_'
'gleiche_'
'gesetzt_'
'fort'
'fixed_'
'film_'
'expectations_'
'entsprechenden_'
'elements_'
'dalam_'
'congratulate_'
'colleagues_'
'bestimmt_'
'begann_'
'associated_'
'approved_'
'anders_'
'and'
'ale_'
'agriculture_'
'advantage_'
'ad'
'a'
'Zustimmung_'
'Za'
'Vorteile_'
'Veränderungen_'
'Unabhängigkeit_'
'Team_'
'Per'
'Partner_'
'Nun_'
'Methode_'
'Konzept_'
'Kommissarin_'
'Kolleginnen_'
'Jahrzehnten_'
'Instead_'
'Installation_'
'Erfahrungen_'
'Engagement_'
'Dateien_'
'Asien_'
'Anteil_'
'Angelegenheiten_'
'A5_'
'... _'
'+_'
')'
'Ä'
'zi'
'www_'
'worldwide_'
'vision_'
'unbedingt_'
'turned_'
'theory_'
'terrorist_'
'taxes_'
'summer_'
'suchen_'
'spirit_'
'southern_'
'shopping_'
'sh_'
'representatives_'
'raum_'
'phase_'
'paper_'
'operations_'
'ones_'
'ni'
'menu_'
'mar'
'log_'
'licher_'
'ko_'
'interested_'
'innovation_'
'industries_'
'industrie_'
'improved_'
'haus_'
'handeln_'
'gewinnen_'
'gern_'
'genuine_'
'generally_'
'games_'
'ga_'
'fund_'
'eventually_'
'enormous_'
'ene_'
'eingesetzt_'
'durchaus_'
'document_'
'corruption_'
'contain_'
'considerable_'
'connected_'
'conclusion_'
'clients_'
'begrüße_'
'aus'
'ated_'
'assessment_'
'announced_'
'analysis_'
'actual_'
'activity_'
']], _'
'Wasser'
'Urlaub_'
'Thus_'
'Strand_'
'Stimme_'
'Sektor_'
'Se'
'Policy_'
'Nahen_'
'Monaten_'
'Leute_'
'Ku'
'Innovation_'
'Human_'
'Gruppen_'
'Folge_'
'Finanz'
'Ereignisse_'
'England_'
'Egypt_'
'Benutzer_'
'Beitritt_'
'Behandlung_'
'Arbeitsplätze_'
'Arbeitslosigkeit_'
'Arbeits'
'Annahme_'
'Al_'
'Agenda_'
'2011_'
'zusätzliche_'
'xi'
'worth_'
'welfare_'
'voting_'
'universal_'
'une_'
'tried_'
'ten'
'targets_'
'sources_'
'sort_'
'sent_'
'sales_'
'ro_'
'relative_'
'relation_'
'record_'
'quote_'
'published_'
'persönlichen_'
'perspective_'
'para_'
'owing_'
'otherwise_'
'oral_'
'numerous_'
'nach'
'maßnahmen_'
'mass_'
'länger_'
'letzte_'
'kt_'
'jüngsten_'
'ir_'
'intervention_'
'innovative_'
'innen_'
'ical_'
'hält_'
'host_'
'gold_'
'goes_'
'geschehen_'
'gelegen_'
'folgenden_'
'firms_'
'finally_'
'erhöht_'
'dürfte_'
'determined_'
'dagegen_'
'cross_'
'corporate_'
'controls_'
'collective_'
'carbon_'
'buy_'
'buffet_'
'box_'
'bezüglich_'
'beginnen_'
'bear_'
'außerdem_'
'apartments_'
'amendment_'
'ahead_'
'adopt_'
'accepted_'
'Währung_'
'Wohn'
'Wer_'
'Wege_'
'Vorschriften_'
'Vertreter_'
'Unser_'
'Turkish_'
'Tra'
'Strategien_'
'Sterne_'
'Standpunkt_'
'Standards_'
'Soviet_'
'Secretary_'
'Sache_'
'Prodi_'
'Nice_'
'Musik_'
'Militär'
'Mexico_'
'Merkel_'
'Le'
'Inflation_'
'Health_'
'Europäer_'
'Erholung_'
'En'
'CA'
'Bilder_'
'Bewegung_'
'Bedrohung_'
'Because_'
'Au'
'Amendment_'
'9'
'0'
'е'
'z'
'wo'
'win_'
'widely_'
'weg_'
'verloren_'
'vergessen_'
'unto_'
'u'
'teilweise_'
'ster_'
'sing_'
'signal_'
'reflect_'
'reception_'
'profit_'
'org_'
'ons'
'offering_'
'offen_'
'obvious_'
'normal_'
'ning_'
'neither_'
'nder_'
'nachhaltige_'
'millions_'
'membership_'
'managed_'
'listed_'
'ker'
'justice_'
'ip'
'internationaler_'
'integrated_'
'institutional_'
'implement_'
'identity_'
'helping_'
'happened_'
'größeren_'
'gen'
'gelangen_'
'freie_'
'flight_'
'ff'
'fellow_'
'fe_'
'expressed_'
'examples_'
'eten_'
'erten_'
'entweder_'
'endlich_'
'ell_'
'einiger_'
'ein'
'ehemaligen_'
'ee_'
'economists_'
'dringend_'
'district_'
'disease_'
'dennoch_'
'denken_'
'criteria_'
'comments_'
'color_'
'camera_'
'bt_'
'bottom_'
'bestand_'
'anti'
'anderem_'
'alt'
'agen_'
'Zentralbank_'
'Wohlstand_'
'Wettbewerbsfähigkeit_'
'Volk_'
'Vo'
'Versuch_'
'USS_'
'Trotz_'
'Tre'
'Transparenz_'
'Teile_'
'Ste'
'Sinne_'
'She_'
'Risiko_'
'Rezession_'
'Plan_'
'Ph'
'Ohne_'
'Meine_'
'Königreich_'
'Her'
'Golf_'
'Film_'
'Entschließung_'
'Democrats_'
'Dar'
'Business_'
'Brasilien_'
'Ben'
'Bau'
'Aspekt_'
'Anstieg_'
'Angebot_'
'1997_'
'" (_'
'­_'
'whom_'
'weiterer_'
'warm_'
'vorhanden_'
'vor'
'verpflichtet_'
'verlieren_'
'verfolgen_'
'verbundenen_'
'vast_'
'umgesetzt_'
'tät_'
'tung_'
'trägt_'
'tool_'
'tomorrow_'
'to'
'ties_'
'thanks_'
'specifically_'
'speaking_'
'science_'
'riesigen_'
'reserves_'
'relating_'
'regionale_'
'prime_'
'primary_'
'presidential_'
'placed_'
'participation_'
'oren_'
'ns'
'north_'
'ng'
'nce_'
'monitoring_'
'mit'
'migration_'
'mark_'
'manage_'
'lies_'
'lichkeit_'
'letztlich_'
'keeping_'
'iger_'
'ice_'
'hören_'
'ho'
'her'
'hear_'
'han_'
'greatest_'
'ft'
'fields_'
'exist_'
'evening_'
'establishing_'
'erfordert_'
'enen_'
'else_'
'elected_'
'ele'
'eit_'
'earlier_'
'download_'
'discussed_'
'dis'
'details_'
'desire_'
'deep_'
'ded_'
'darstellen_'
'conclude_'
'click_'
'chinesische_'
'boost_'
'berücksichtigt_'
'begrüßen_'
'bedarf_'
'ban_'
'assets_'
'arms_'
'anderes_'
'ance_'
'abge'
'YORK_'
'Weltwirtschaft_'
'Welt'
'Warum_'
'Vor'
'Video_'
'Verhalten_'
'Ta'
'Stärkung_'
'Stabilität_'
'Staats'
'Square_'
'See'
'Royal_'
'Regel_'
'Red_'
'Open_'
'Netherlands_'
'Monat_'
'Mexiko_'
'Mer'
'Leistungen_'
'Land'
'Kunst_'
'Jo'
'Is_'
'Investoren_'
'Instrument_'
'He'
'Gäste_'
'Forderung_'
'Entwicklungsländern_'
'El_'
'Clinton_'
'Bis_'
'Ber'
'Bar'
'1995_'
'.._'
' -, _'
'ı'
'wor'
'wodurch_'
'willing_'
'wert_'
'victims_'
'vertreten_'
'transfer_'
'traffic_'
'tan'
'summit_'
'suffering_'
'ständig_'
'strengthen_'
'stated_'
'significantly_'
'signed_'
'shared_'
'seven_'
'ro'
'richtige_'
'rer_'
'relativ_'
'relate_'
'protected_'
'pra'
'pour_'
'playing_'
'ort_'
'operation_'
'numbers_'
'nu'
'nahme_'
'models_'
'miteinander_'
'lo_'
'link_'
'languages_'
'laden_'
'konzentrieren_'
'ki_'
'ka_'
'ir'
'ing'
'il'
'icht_'
'gu'
'goals_'
'gli'
'getroffen_'
'führte_'
'formal_'
'fand_'
'extreme_'
'euch_'
'elsewhere_'
'ellen_'
'easier_'
'directives_'
'cycle_'
'criminal_'
'consensus_'
'communities_'
'commitments_'
'comfort_'
'combination_'
'ck'
'character_'
'broad_'
'born_'
'bars_'
'ausschließlich_'
'article_'
'anzu'
'ank'
'angeht_'
'am'
'ages_'
'accession_'
'absolute_'
'Washington_'
'Volkswirtschaften_'
'Tri'
'Treffen_'
'Syrien_'
'Spieler_'
'Sol'
'Rück'
'Robert_'
'Ri'
'Ra'
'Privat'
'Online_'
'Nein_'
'Meanwhile_'
'Leider_'
'Last_'
'Kritik_'
'Kredit'
'Konsens_'
'Kan'
'Justice_'
'Islamic_'
'Institute_'
'Homepage_'
'Home_'
'Hinsicht_'
'Gebäude_'
'Frankfurt_'
'Fortschritt_'
'Forderungen_'
'Erachtens_'
'Do'
'Congress_'
'Breakfast_'
'Bei'
'Barack_'
'Augen_'
'8'
'01_'
'. (_'
'і'
'т'
'д'
'а'
'ón_'
'ó'
'ßen_'
'zugleich_'
'za_'
'y'
'wirtschaftlicher_'
'weisen_'
'w'
'understanding_'
'umzusetzen_'
'umfassenden_'
'technological_'
'tan_'
'talks_'
'swimming_'
'supporting_'
'stimmen_'
'starken_'
'spread_'
'slow_'
'sitting_'
'sierung_'
'sicherzustellen_'
'schneller_'
'schließen_'
'rural_'
'ri_'
'resolve_'
'represents_'
'refugees_'
'recognize_'
'purchase_'
'promoting_'
'presidency_'
'player_'
'physical_'
'payment_'
'out'
'ogen_'
'obviously_'
'morgen_'
'mittel_'
'mer_'
'manufacturing_'
'läuft_'
'kennen_'
'ju'
'ismus_'
'introduce_'
'interesting_'
'hit_'
'himself_'
'happy_'
'ha'
'guidelines_'
'governance_'
'geändert_'
'ges_'
'gegenwärtigen_'
'gar'
'funktioniert_'
'flexible_'
'felt_'
'exactly_'
'erlaubt_'
'erkennen_'
'er'
'entsprechend_'
'ence_'
'duty_'
'discussions_'
'discuss_'
'difficulties_'
'cover_'
'conflicts_'
'closer_'
'claim_'
'ches_'
'charged_'
'candidate_'
'bonds_'
'bilden_'
'berg_'
'benutzt_'
'behavior_'
'animals_'
'ah_'
'achten_'
'absolutely_'
'Zur_'
'Zunächst_'
'Wochen_'
'Wahl'
'Verwaltung_'
'Suche_'
'Straf'
'Steuer'
'Sonder'
'Selbst_'
'Reserve_'
'Projekte_'
'Polen_'
'Ne'
'Natur_'
'MySQL_'
'MO'
'Lebens'
'Landwirtschaft_'
'Krankheiten_'
'Klicken_'
'Kapital'
'Ist_'
'In'
'Grund'
'Groß'
'Ger'
'Gegenteil_'
'Gebieten_'
'Flug'
'Falle_'
'Euro'
'Erfahrung_'
'Einrichtungen_'
'Einrichtung_'
'Ce'
'Both_'
'Aspekte_'
'Al'
'Agreement_'
'36_'
'30'
' –, _'
' ... _'
'Über_'
'wählen_'
'window_'
'wi'
'weiteres_'
'vollständig_'
'verringern_'
'van_'
'va_'
'unge'
'una'
'ug_'
'tz_'
'treaty_'
'ter'
'sun_'
'stu'
'street_'
'standing_'
'someone_'
'skills_'
'signs_'
'sel'
'schools_'
'scher_'
'released_'
'rechts'
'rasch_'
'punkt_'
'proved_'
'prove_'
'politisch_'
'pe_'
'parliamentary_'
'ourselves_'
'or'
'older_'
'ol'
'offensichtlich_'
'nt'
'merely_'
'machte_'
'machine_'
'loans_'
'll'
'learning_'
'jo'
'ized_'
'ite_'
'id_'
'hy'
'gs'
'got_'
'gi'
'französische_'
'format_'
'focused_'
'finanzielle_'
'fe'
'faced_'
'expense_'
'exclusive_'
'eu'
'erzielen_'
'enti'
'einander_'
'dynamic_'
'doesn_'
'divided_'
'delegation_'
'deficits_'
'database_'
'danach_'
'constitutional_'
'claims_'
'burden_'
'bodies_'
'beziehen_'
'benötigt_'
'bei'
'automatisch_'
'ausge'
'ating_'
'ard_'
'aktuelle_'
'aktiv_'
'Y'
'Wähler_'
'Vielleicht_'
'Vereinbarung_'
'Verbindungen_'
'Unfortunately_'
'Un'
'TA'
'Standard_'
'Schlüssel'
'SA'
'Re'
'Produkt'
'Pro_'
'Prinzipien_'
'Post'
'Pi'
'Os'
'Neben_'
'Name_'
'Nachfolgend_'
'Mu'
'Modell_'
'Mitarbeiter_'
'Kompromiss_'
'Klimawandel_'
'Ju'
'ID_'
'Hong_'
'Ho'
'Ha'
'EADS_'
'Du_'
'Computer_'
'Brazil_'
'Best_'
'Beispiele_'
'Barroso_'
'Ausland_'
'Aufgrund_'
'Argentina_'
'Apartments_'
'Anstrengungen_'
'Angriff_'
'Amt_'
'Alliance_'
'Air_'
'75_'
'39_'
'190'
', „_'
''._'
' ('
'у'
'ée_'
'ären_'
'Überwachung_'
'zufolge_'
'wenigen_'
'welches_'
'war'
'vulnerable_'
'voters_'
'verlassen_'
'uss_'
'unit_'
'tz'
'truth_'
'track_'
'tidak_'
'thereby_'
'tests_'
'sur'
'suggests_'
'substantial_'
'strategies_'
'staatliche_'
'st'
'sanctions_'
'sam'
'root_'
'responsibilities_'
'relatively_'
'qua'
'port_'
'nes_'
'ner'
'müsste_'
'mindestens_'
'mid_'
'methods_'
'meaning_'
'materials_'
'lo'
'len'
'legt_'
'ld_'
'laws_'
'kommenden_'
'kle'
'king_'
'kaufen_'
'ka'
'hundreds_'
'humanitarian_'
'hn'
'historische_'
'heutigen_'
'großes_'
'granted_'
'gefallen_'
'garden_'
'führenden_'
'freiheit_'
'founded_'
'ff_'
'fa'
'eyes_'
'expression_'
'expansion_'
'except_'
'ets_'
'estate_'
'erleben_'
'entry_'
'ec'
'du'
'dir_'
'detailed_'
'defined_'
'default_'
'debates_'
'dank_'
'cutting_'
'cken_'
'cheap_'
'calls_'
'britische_'
'bly_'
'bestimmte_'
'bestimmen_'
'baren_'
'ba'
'auf'
'asylum_'
'ara_'
'Wissenschaft_'
'Wein'
'Volkswirtschaft_'
'Vietnam_'
'Verpflichtungen_'
'Um'
'UNO_'
'Then_'
'Te'
'Sinn_'
'Sehr_'
'Sehenswürdigkeiten_'
'Rotary_'
'Regime_'
'Pro'
'Pre'
'Patienten_'
'Pa'
'Old_'
'No'
'Niveau_'
'Nachdem_'
'NI_'
'Männer_'
'Mitteln_'
'Mitteilung_'
'Michael_'
'Lu'
'Li'
'Leistung_'
'Krieges_'
'Korruption_'
'IS'
'IP_'
'Haushalt_'
'Gold_'
'God_'
'Gleichzeitig_'
'Formen_'
'Foreign_'
'Familien_'
'Emissionen_'
'DA'
'Bus'
'Beschreibung_'
'Basis_'
'Atmosphäre_'
'Angst_'
'Anfrage_'
'Alternative_'
'64_'
'400_'
'33_'
'1996_'
'1989_'
'150_'
'11'
'. – _'
', "_'
' — _'
' = _'
'н_'
'м'
'zation_'
'zahlreichen_'
'ya'
'wirksam_'
'unterschiedlichen_'
'unless_'
'um'
'turning_'
'ts'
'trend_'
'treated_'
'translation_'
'transition_'
'ti'
'systeme_'
'subsidies_'
'stre'
'starting_'
'spent_'
'spa'
'shops_'
'sea'
'roughly_'
'resulting_'
'resort_'
'represent_'
'rejected_'
'referendum_'
'purposes_'
'ps_'
'processes_'
'pp'
'positions_'
'planet_'
'partnership_'
'parliament_'
'pada_'
'organizations_'
'opened_'
'offiziellen_'
'nar'
'named_'
'mehreren_'
'maximum_'
'liquidity_'
'liberal_'
'lesen_'
'leaving_'
'laufen_'
'lau'
'laid_'
'labour_'
'kon'
'komplett_'
'ists_'
'ish_'
'introduction_'
'inequality_'
'ierten_'
'ier'
'id'
'höhere_'
'gutes_'
'gung_'
'griechischen_'
'gestimmt_'
'gave_'
'fähigkeit_'
'firm_'
'eye_'
'extension_'
'excessive_'
'entwickelten_'
'egen_'
'ed'
'economics_'
'durch'
'driving_'
'destruction_'
'decide_'
'de'
'contemporary_'
'completed_'
'combat_'
'coffee_'
'coal_'
'ce'
'capable_'
'calling_'
'beste_'
'besondere_'
'besch'
'beruht_'
'außen_'
'ati'
'angezeigt_'
'alt_'
'advance_'
'accounts_'
'Waren_'
'Vorteil_'
'Verpflichtung_'
'Trump_'
'Transport_'
'Tradition_'
'Teil'
'THE_'
'Systeme_'
'Straße_'
'Sozial'
'Selbst'
'RI'
'Private_'
'Prioritäten_'
'Premierminister_'
'Other_'
'Monate_'
'Mitgliedschaft_'
'Mar'
'Kultur'
'Kredite_'
'Kong_'
'Konflikt_'
'Kindern_'
'Ke'
'Kapital_'
'James_'
'Insel_'
'Informations'
'Identität_'
'III_'
'Hotel'
'HIV_'
'Given_'
'Gesellschaften_'
'Generation_'
'Fähigkeit_'
'February_'
'Eindruck_'
'Dr_'
'Di'
'Denn_'
'Da'
'Bra'
'Bildungs'
'Atom'
'Another_'
'Abschluss_'
'1980_'
' /_'
'о'
'ür'
'ä'
'zusätzlich_'
'zing_'
'wrote_'
'wiederum_'
'westlichen_'
'wachsenden_'
'ub'
'tzen_'
'truly_'
'tive_'
'thinking_'
'terrace_'
'television_'
'tasks_'
'supposed_'
'stärken_'
'stress_'
'stations_'
'statements_'
'spacious_'
'sovereignty_'
'sold_'
'ski_'
'shower_'
'senior_'
'seitens_'
'scope_'
'schreiben_'
'scheinen_'
'rt'
'revolution_'
'regulatory_'
'recession_'
'rapidly_'
'putting_'
'payments_'
'obligations_'
'nts_'
'nis'
'niemand_'
'nationaler_'
'möglichkeiten_'
'mögen_'
'myself_'
'militärischen_'
'meetings_'
'lp'
'leads_'
'laut_'
'launch_'
'langen_'
'lang'
'ji'
'je'
'ization_'
'inzwischen_'
'independence_'
'increases_'
'improvement_'
'ill_'
'ik_'
'holding_'
'guaranteed_'
'gro'
'genannt_'
'gemäß_'
'geleistet_'
'gegenwärtig_'
'garantiert_'
'ga'
'functions_'
'frei'
'fish_'
'fail_'
'faces_'
'extensive_'
'ernst_'
'erinnern_'
'erfolgen_'
'equally_'
'enterprises_'
'enormen_'
'email_'
'element_'
'ei_'
'do'
'dienen_'
'deutsche_'
'der'
'definition_'
'daten_'
'darunter_'
'damals_'
'currencies_'
'crime_'
'creates_'
'courses_'
'changing_'
'candidates_'
'budgetary_'
'brings_'
'books_'
'bezeichnet_'
'bezahlen_'
'ber'
'benutzen_'
'beds_'
'barkeit_'
'ausdrücklich_'
'asi'
'arguments_'
'apart_'
'anyone_'
'ana_'
'aimed_'
'ade'
'abzu'
'ably_'
']] [[_'
'Your_'
'Worten_'
'Wissen_'
'Verhältnis_'
'VI'
'Tor'
'Time_'
'Tages_'
'Stadt'
'Staates_'
'Sicherheits'
'See_'
'Russlands_'
'Ru'
'Q_'
'Produktions'
'Liberalisierung_'
'Kontakt_'
'Klima'
'Jean_'
'Initiativen_'
'Hintergrund_'
'Haupt'
'Han'
'HA'
'Grenze_'
'Global_'
'Foundation_'
'Fe'
'Faktoren_'
'Erhöhung_'
'Energy_'
'Energie'
'Ein'
'Eastern_'
'Earth_'
'ER'
'Dra'
'Des'
'Depression_'
'DI'
'Click_'
'CH'
'Buch_'
'Bo'
'Beweis_'
'Ba'
'Auto'
'Aufgaben_'
'Aufbau_'
'Arten_'
': “_'
'65_'
'2014_'
'15'
'14'
'', _'
'—_'
'та'
'л'
'è'
'á_'
'yourself_'
'wünschen_'
'widespread_'
'wichtigste_'
'warming_'
'wachsende_'
'voice_'
'verfahren_'
'verbessert_'
'ven_'
'uti'
'us'
'ultimately_'
'tte_'
'tro'
'transparency_'
'traditionellen_'
'traditionelle_'
'tourist_'
'technischen_'
'supports_'
'stance_'
'south_'
'sought_'
'son'
'sla'
'sis_'
'sight_'
'siehe_'
'ser_'
'selection_'
'selected_'
'rung_'
'rsch'
'richten_'
'reservation_'
'remember_'
'regionalen_'
'proper_'
'pre'
'pin'
'photos_'
'participate_'
'parents_'
'organisations_'
'o'
'mut'
'musste_'
'mittlerweile_'
'meter_'
'mereka_'
'mer'
'measure_'
'manner_'
'maintained_'
'lung_'
'lu'
'love_'
'lessons_'
'ld'
'kulturellen_'
'io_'
'involve_'
'installation_'
'ins'
'implementing_'
'imagine_'
'ierungs'
'höher_'
'housing_'
'households_'
'hn_'
'hed_'
'gone_'
'gesprochen_'
'geraten_'
'gelten_'
'funktionieren_'
'französischen_'
'flu'
'flows_'
'fisheries_'
'federal_'
'faster_'
'factors_'
'ey_'
'extend_'
'exit_'
'europäischer_'
'et'
'era'
'entstehen_'
'ensuring_'
'eln_'
'elegant_'
'einzu'
'eight_'
'ef'
'dra'
'display_'
'diplomatic_'
'depends_'
'dealing_'
'cuisine_'
'crimes_'
'covered_'
'constitution_'
'closely_'
'cast_'
'bor'
'betrachten_'
'beschlossen_'
'balanced_'
'bal'
'automatically_'
'asset_'
'arbeitet_'
'arbeit_'
'ante_'
'al'
'administrative_'
'accordance_'
'Zinsen_'
'Währungs'
'Wo'
'Wirtschafts'
'Wirkung_'
'Win'
'Voraussetzungen_'
'Volks'
'Vergleich_'
'Tau'
'Stimmen_'
'Sta'
'Spiel'
'Schulden'
'Rückgang_'
'Rome_'
'Rezeption_'
'Rest_'
'Research_'
'Preis'
'PT_'
'PHP_'
'Organisationen_'
'OS_'
'Nachbarn_'
'Mo'
'Mindest'
'Mi'
'Macht'
'Located_'
'Live_'
'Las_'
'La'
'Kinder'
'Ka'
'Jeder_'
'Irish_'
'Indian_'
'Gefühl_'
'Funktionen_'
'Finanzkrise_'
'Ent'
'Einklang_'
'Board_'
'Bio'
'Binnenmarkt_'
'Bau_'
'Ban'
'BO'
'Ausbildung_'
'Analyse_'
'Altstadt_'
'Akteure_'
'AR'
'AM'
'95_'
'52_'
'48_'
'42_'
'2012_'
','
' €_'
'” – _'
'überprüfen_'
'ör'
'Übereinstimmung_'
'Über'
'zimmer_'
'wine_'
'wesentlich_'
'wages_'
'vo'
'up'
'unacceptable_'
'umfasst_'
'umfassende_'
'ud'
'tter'
'tradition_'
'telephone_'
'tar'
'talking_'
'surrounding_'
'structures_'
'stra'
'stattfinden_'
'stands_'
'square_'
'sprach_'
'sport_'
'smus_'
'smoking_'
'sm_'
'sieben_'
'sicherlich_'
'sharing_'
'sell_'
'scheme_'
'ru'
'relax_'
'referred_'
'rd'
'raten_'
'rat_'
'race_'
'quarter_'
'prüfen_'
'provision_'
'prosperity_'
'promotion_'
'print_'
'post'
'por_'
'piece_'
'pictures_'
'photo_'
'persons_'
'peaceful_'
'ou_'
'origin_'
'operating_'
'olitik_'
'müssten_'
'mu'
'militärische_'
'mechanism_'
'meant_'
'manchmal_'
'ls'
'lokale_'
'ln_'
'lle'
'liches_'
'li_'
'launched_'
'latter_'
'l'
'kürzlich_'
'konkrete_'
'kitchen_'
'keinerlei_'
'ise_'
'initial_'
'indi'
'index_'
'improvements_'
'impressive_'
'ie'
'honourable_'
'hip_'
'hen'
'heiten_'
'gerne_'
'gerecht_'
'geo'
'gender_'
'genauso_'
'gap_'
'gan_'
'früher_'
'fordert_'
'flow_'
'estimated_'
'essen_'
'erscheint_'
'erle'
'erhält_'
'erforderlichen_'
'entirely_'
'engineering_'
'ended_'
'employees_'
'emp'
'ela'
'einge'
'ehen_'
'echte_'
'dritten_'
'discrimination_'
'dinner_'
'deliver_'
'defend_'
'defence_'
'declaration_'
'danger_'
'cu'
'criticism_'
'contract_'
'colleague_'
'club_'
'che'
'cer'
'cas'
'carefully_'
'bra'
'bio'
'bility_'
'betroffen_'
'besseren_'
'behandelt_'
'beaches_'
'ball_'
'außerordentlich_'
'argument_'
'andererseits_'
'allgemeine_'
'af'
'Zeit'
'Wegen_'
'Wandel_'
'Verbraucher'
'Venezuela_'
'Unterschiede_'
'Umwelt'
'Umständen_'
'Thank_'
'Tal'
'Steuern_'
'Spe'
'Sorgen_'
'Shi'
'She'
'Sat'
'Santa_'
'Sand'
'Safety_'
'Saddam_'
'SS_'
'Regulation_'
'Regelung_'
'Rechtsvorschriften_'
'Realität_'
'Q'
'Pri'
'Pin'
'Phase_'
'Paul_'
'Option_'
'Not'
'Miss'
'Mann_'
'Mal'
'Lang'
'Konjunktur'
'Konflikte_'
'Kombination_'
'Klein'
'Jetzt_'
'Jahres'
'Ja'
'Irland_'
'Instrumente_'
'Inhalt_'
'Hinweis_'
'Hel'
'Grunde_'
'Gra'
'Gesundheits'
'Gesetz_'
'Front_'
'Friedens'
'Firmen_'
'Fest'
'Februar_'
'Familien'
'Fahr'
'Entwicklungen_'
'Einzel'
'Einheit_'
'Durchführung_'
'Dennoch_'
'Dann_'
'Che'
'Chancen_'
'Can_'
'Aussicht_'
'Aufenthalt_'
'Anwendungen_'
'Abend_'
'Ab'
'25'
'21'
'1'
'”._'
'б'
'übertragen_'
'ß'
'zählen_'
'zo'
'ym'
'yesterday_'
'work'
'wirtschaftlich_'
'wind_'
'vis_'
'village_'
'veröffentlicht_'
'vern'
'verlangen_'
'usw_'
'urgent_'
'ures_'
'urban_'
'ungefähr_'
'uel'
'täglich_'
'typical_'
'tur'
'tum_'
'trag'
'tis'
'the'
'tel_'
'sugar_'
'stronger_'
'species_'
'smaller_'
'sin'
'severe_'
'sets_'
'serves_'
'sensitive_'
'seien_'
'seemed_'
'sar'
'sage_'
'russischen_'
'russische_'
'removed_'
'remove_'
'rei'
'records_'
'recommend_'
'recognise_'
'reaching_'
'rag'
'r'
'platform_'
'picture_'
'parliaments_'
'owned_'
'ora'
'oni'
'ok_'
'occur_'
'nz_'
'nti'
'newly_'
'necessarily_'
'moving_'
'moved_'
'mountain_'
'motion_'
'mostly_'
'mode_'
'min_'
'micro'
'memory_'
'lovely_'
'lokalen_'
'legitimacy_'
'learned_'
'land'
'lage_'
'la'
'künftige_'
'kur'
'killed_'
'kel'
'ke'
'ium_'
'iten_'
'issued_'
'instance_'
'inside_'
'inc'
'immigrants_'
'ile_'
'identified_'
'ians_'
'ian'
'hostels_'
'hoher_'
'highlight_'
'hi_'
'harus_'
'guide_'
'guarantees_'
'grow_'
'golf_'
'gezwungen_'
'geschützt_'
'gegründet_'
'gal'
'gains_'
'fällt_'
'figure_'
'feststellen_'
'fen'
'extended_'
'explain_'
'excess_'
'erm'
'ergeben_'
'enorme_'
'ek_'
'eg'
'ea'
'drug_'
'dro'
'down'
'discovered_'
'device_'
'destroyed_'
'den'
'demokratische_'
'declared_'
'conducted_'
'compensation_'
'client_'
'chl'
'category_'
'can'
'buildings_'
'bla'
'bildet_'
'biggest_'
'bestehenden_'
'berücksichtigen_'
'believed_'
'belief_'
'beachten_'
'bath_'
'ban'
'aufzu'
'ator_'
'aten_'
'arrival_'
'army_'
'animal_'
'ae'
'absence_'
'[[_'
'Ziel'
'Ze'
'Will_'
'Wachstums_'
'Vielzahl_'
'Very_'
'Verwaltungs'
'Unterschied_'
'Tro'
'Test_'
'Teilen_'
'Stil_'
'Standard'
'Sohn_'
'Seine_'
'Schaden_'
'Sarkozy_'
'Sa'
'SQL_'
'SI'
'Roman_'
'Rechts_'
'Prozesses_'
'Problems_'
'Priorität_'
'Pan'
'Over_'
'OR_'
'MA'
'Lebanon_'
'Kyoto_'
'Kriegs'
'Karte_'
'Kar'
'Island_'
'Industrie'
'Har'
'Gespräche_'
'Gesetze_'
'Gemeinsamen_'
'Führer_'
'Find_'
'FR_'
'Executive_'
'Erwartungen_'
'Er'
'Entwicklungsländer_'
'Entwicklungs'
'Dimension_'
'Del'
'De_'
'David_'
'Control_'
'Car'
'CI'
'Book_'
'Berichterstatterin_'
'Bel'
'Beach_'
'Bahn_'
'BMW_'
'BA'
'Außen'
'Auto_'
'Austrian_'
'As'
'Anspruch_'
'Anforderungen_'
'An'
'Absicht_'
'@_'
'23'
'188'
'13'
'-'
'," _'
'”'
'ös'
'í'
'és_'
'á'
'ws_'
'write_'
'wollte_'
'weg'
'vous_'
'verdient_'
'unter'
'unmöglich_'
'unmittelbar_'
'under'
'unabhängig_'
'un'
'uf'
'ual_'
'tt_'
'tri'
'touch_'
'topic_'
'tly_'
'taxation_'
'stri'
'spielt_'
'solange_'
'sofort_'
'societies_'
'sha'
'session_'
'seriously_'
'select_'
'seats_'
'season_'
'schönen_'
'schi'
'sa'
'restrictions_'
'resource_'
'resolved_'
'represented_'
'representative_'
'rental_'
'reicht_'
'reich_'
'reduzieren_'
'rechts_'
'rea'
'raising_'
'quick_'
'que'
'protecting_'
'prospects_'
'primarily_'
'prevention_'
'precise_'
'pol'
'platz_'
'phrase_'
'pen'
'passed_'
'packages_'
'ose_'
'ordered_'
'of'
'notwendigen_'
'no'
'niemals_'
'nennen_'
'möglichen_'
'mm_'
'ministers_'
'mal'
'ländlichen_'
'luxury_'
'lten_'
'losses_'
'looks_'
'linie_'
'li'
'le'
'kin'
'ischer_'
'is'
'ingly_'
'in'
'impose_'
'images_'
'igung_'
'ia'
'hoffen_'
'hinweisen_'
'hi'
'ha_'
'guter_'
'gewährleistet_'
'gewählt_'
'generations_'
'führende_'
'fuel_'
'früheren_'
'fresh_'
'forget_'
'flexibility_'
'fit_'
'finanziellen_'
'figures_'
'fighting_'
'father_'
'extra'
'ex_'
'ethnic_'
'est'
'erfolgreichen_'
'entscheidender_'
'enth'
'entered_'
'emphasise_'
'els_'
'elle_'
'eiten_'
'einzusetzen_'
'ear'
'dé'
'division_'
'distributed_'
'discover_'
'devices_'
'detail_'
'depend_'
'couple_'
'counter_'
'cor'
'contrary_'
'consultation_'
'compatible_'
'collapse_'
'col'
'cher'
'cards_'
'cancer_'
'button_'
'bu'
'bi'
'bewegen_'
'bestätigen_'
'beigetragen_'
'behalten_'
'be'
'battle_'
'back'
'austerity_'
'ausreichend_'
'ausgesetzt_'
'ausgaben_'
'aufzunehmen_'
'assume_'
'asi_'
'arte'
'arrangements_'
'armed_'
'anstatt_'
'allgemeinen_'
'allgemein_'
'all'
'affairs_'
'accessible_'
'abhängig_'
'Zusammenbruch_'
'Zeitraum_'
'Yu'
'Wunsch_'
'White_'
'Wa'
'Vom_'
'Villa_'
'Verringerung_'
'Untersuchung_'
'Unternehmens'
'Umfang_'
'Trek_'
'Those_'
'Texte_'
'Taiwan_'
'Süd'
'Sweden_'
'Sprachen_'
'Skype_'
'Si'
'Serbia_'
'Schäden_'
'Schutz'
'Schulen_'
'Reaktion_'
'Pu'
'Protokoll_'
'Po'
'Pe'
'Pacific_'
'Ordnung_'
'Ob'
'Noch_'
'Nevertheless_'
'Nacht_'
'Nach'
'Musik'
'Moscow_'
'Monetary_'
'Mess'
'Mas'
'Malaysia_'
'Ma'
'MI'
'Kriterien_'
'Kopf_'
'Kommunikation_'
'King_'
'Kind_'
'Japans_'
'IT'
'Hostel_'
'Hoch'
'Haushalte_'
'Hause_'
'Hauptstadt_'
'Handels'
'Gro'
'Green_'
'Glauben_'
'Geschäftsordnung_'
'Gemeinschafts'
'Geld'
'Fra'
'Foto_'
'Fort'
'Flüchtlinge_'
'Fax_'
'Export'
'Every_'
'Ei'
'ES'
'EA'
'Download_'
'Deutsche_'
'Day_'
'Daten'
'Data_'
'Chile_'
'Charakter_'
'Cha'
'Bus_'
'Brüssel_'
'Botschaft_'
'Beschäftigungs'
'Berichts_'
'Bedarf_'
'Be'
'Ausweitung_'
'Ausmaß_'
'Armee_'
'Agency_'
'AT'
'44_'
'250_'
'1991_'
'1970_'
'194'
'193'
'.  _'
') '
'™ _'
'öl'
'ö'
'är'
'zero_'
'zentrum_'
'wirtschaft_'
'whatever_'
'welcher_'
'wage_'
'verändert_'
'urge_'
'ur'
'unseres_'
'ufen_'
'typically_'
'trotzdem_'
'title_'
'tera'
'te'
'ta'
'sustainability_'
'super'
'sun'
'successfully_'
'substances_'
'sub'
'studies_'
'struggle_'
'sting_'
'stimulus_'
'stellte_'
'sports_'
'spa_'
'sonst_'
'ships_'
'ser'
'schwierigen_'
'schnelle_'
'schlagen_'
'schie'
'runs_'
'roads_'
'ringen_'
'rin'
'remote_'
'reliable_'
'relaxing_'
'regular_'
'reden_'
'recognition_'
'radio_'
'qui'
'promise_'
'productive_'
'preise_'
'plants_'
'pit'
'pick_'
'phenomenon_'
'perubahan_'
'pension_'
'patients_'
'partly_'
'parallel_'
'para'
'pa'
'ore'
'ordnung_'
'opposed_'
'operate_'
'offene_'
'obtain_'
'ob'
'ntly_'
'normalerweise_'
'nk'
'mus'
'momentan_'
'mis'
'ming_'
'mi'
'mene'
'med_'
'mechanisms_'
'me'
'mas'
'man'
'maintaining_'
'ließ_'
'leisure_'
'leistungen_'
'langfristige_'
'kept_'
'keiner_'
'kas'
'jeweils_'
'jener_'
'jenen_'
'isi'
'intensive_'
'install_'
'imposed_'
'hängt_'
'hrt_'
'houses_'
'hot_'
'hit'
'helps_'
'hauptsächlich_'
'happening_'
'größer_'
'grundlegenden_'
'glo'
'gla'
'ght_'
'gewisse_'
'gestärkt_'
'gefordert_'
'ged_'
'furniture_'
'free'
'frage_'
'finanziert_'
'expenditure_'
'exercise_'
'exclusively_'
'erscheinen_'
'erfolgt_'
'erfahren_'
'equivalent_'
'equality_'
'entschieden_'
'ending_'
'ende'
'en'
'electronic_'
'einsetzen_'
'edi'
'dunia_'
'dollars_'
'disa'
'differences_'
'determine_'
'demanding_'
'customer_'
'ct_'
'considering_'
'concrete_'
'concluded_'
'combating_'
'charges_'
'centuries_'
'bre'
'booking_'
'bemüht_'
'behaupten_'
'availability_'
'auszu'
'aufnehmen_'
'allowing_'
'ak_'
'ai_'
'affect_'
'advantages_'
'ach_'
'Zweiten_'
'Zentralbanken_'
'Z_'
'Yes_'
'Währungsunion_'
'Widerstand_'
'Wesentlichen_'
'Völker_'
'Videos_'
'VO'
'Up'
'Universität_'
'Tour_'
'Tod_'
'Their_'
'Teilnahme_'
'Studie_'
'Stand_'
'Sprach'
'Sonnen'
'Sommer_'
'Sieg_'
'Second_'
'Schluss_'
'SE'
'Roma_'
'Richtlinien_'
'Report_'
'Reise'
'Rede_'
'RO'
'Que'
'Polish_'
'Plaza_'
'Perhaps_'
'PS'
'Or_'
'Op'
'Oder_'
'OECD_'
'Nutzer_'
'Non_'
'Na'
'NT'
'Mont'
'Mittelmeer_'
'Mit'
'Men'
'Media_'
'Madrid_'
'Los_'
'Lateinamerika_'
'Kurs_'
'Kor'
'Kontroll'
'Kontinent_'
'Jahrzehnt_'
'Israels_'
'Investitions'
'Inseln_'
'Holz'
'Grad_'
'Frei'
'For'
'Fonds_'
'Film'
'Fi'
'Fer'
'Fach'
'FI'
'Enjoy_'
'End'
'El'
'EL'
'EC_'
'Drittens_'
'Dan'
'DC_'
'Ci'
'Charta_'
'Budget_'
'Bild'
'Berg'
'Belarus_'
'Beim_'
'Beihilfen_'
'Bank'
'Balkan_'
'Arm'
'Ar'
'Anerkennung_'
'Airbus_'
'Ad'
'Abgeordnete_'
'AG_'
'05_'
') – _'
'”, _'
'č_'
'übernommen_'
'äu'
'Ü'
'Ägypten_'
'zurückge'
'zin'
'wonder_'
'wishes_'
'wieder'
'west_'
'welt_'
'weight_'
'wall_'
'wait_'
'vorschlagen_'
'vorgelegt_'
'verursacht_'
'verfolgt_'
'vehicle_'
'ust'
'use'
'update_'
'unternommen_'
'unlikely_'
'unfortunately_'
'una_'
'tten_'
'trifft_'
'tischen_'
'ti_'
'temp'
'teilen_'
'swi'
'sver'
'survive_'
'sur_'
'sum_'
'suite_'
'suffer_'
'sto'
'ssi'
'spricht_'
'spoke_'
'sovereign_'
'solcher_'
'sol'
'soft_'
'so'
'sized_'
'situations_'
'sing'
'sim'
'shape_'
'sh'
'selbstverständlich_'
'sagt_'
'rr'
'rie'
'revenue_'
'returned_'
'restore_'
'reserve_'
'rely_'
'registered_'
'regardless_'
'reasonable_'
'realen_'
'reagieren_'
'reaction_'
'railway_'
'qualität_'
'propose_'
'properly_'
'promises_'
'producers_'
'processing_'
'prior_'
'pri'
'potentially_'
'possibly_'
'pon'
'plenty_'
'pla'
'personally_'
'perfectly_'
'passiert_'
'paragraph_'
'ott'
'os'
'ori'
'organization_'
'opposite_'
'onto_'
'ok'
'occasions_'
'np'
'neg'
'ndo_'
'ncy_'
'names_'
'na'
'märkte_'
'my'
'mussten_'
'multi'
'metro_'
'metres_'
'meist_'
'maintenance_'
'losing_'
'ller_'
'lis'
'lim'
'liked_'
'leaves_'
'lands_'
'lagen_'
'knows_'
'knew_'
'keits'
'ked_'
'joined_'
'it'
'isierung_'
'interessiert_'
'informiert_'
'informed_'
'inde'
'ified_'
'hostel_'
'hl_'
'hl'
'hem'
'halt_'
'gruppe_'
'gre'
'go'
'gleich'
'gesch'
'genügend_'
'gang_'
'führung_'
'fördert_'
'forum_'
'fore'
'fo'
'fin'
'fer'
'fel'
'fehlt_'
'favor_'
'fat'
'fantastic_'
'falsch_'
'explanation_'
'experts_'
'exists_'
'everywhere_'
'es'
'erg'
'ent'
'engine_'
'eng_'
'ene'
'ement_'
'eliminate_'
'eingeführt_'
'echten_'
'drugs_'
'driven_'
'dre'
'door_'
'don'
'diversity_'
'dishes_'
'diseases_'
'disc'
'disaster_'
'demonstrate_'
'delay_'
'definiert_'
'deaths_'
'danke_'
'crew_'
'coordination_'
'controlled_'
'contributions_'
'contribute_'
'consideration_'
'confirmed_'
'condition_'
'comment_'
'combined_'
'cho'
'causes_'
'cars_'
'budgets_'
'bracht_'
'blue_'
'block_'
'ble'
'bislang_'
'bequem_'
'bel'
'bedroom_'
'badly_'
'background_'
'backed_'
'association_'
'asking_'
'arbeits'
'ara'
'appreciate_'
'appeared_'
'angeboten_'
'anf'
'anbieten_'
'ama'
'ale'
'ak'
'aims_'
'agency_'
'agencies_'
'adoption_'
'adi'
'ade_'
'achieving_'
'abroad_'
']]_'
'Zustand_'
'Zu'
'Ziffer_'
'Worte_'
'Wird_'
'Wien_'
'Weltbank_'
'Web'
'War'
'Wahrheit_'
'WI'
'Vienna_'
'Verteidigung_'
'Verkehrs'
'Vereinbarungen_'
'Ungleichheit_'
'Under_'
'UN'
'Ti'
'Technik_'
'TNG_'
'TI'
'Städte_'
'Sto'
'Stellung_'
'Speicher'
'Son'
'Sitzung_'
'Sen'
'Schi'
'Sche'
'San'
'SO'
'SD'
'Rechnung_'
'RA'
'Puerto_'
'Prä'
'Praxis_'
'Pra'
'Partnerschaft_'
'National'
'Nation_'
'NA'
'Munich_'
'Menschenrechts'
'Menschen'
'Meiner_'
'Me'
'Mat'
'Martin_'
'Location_'
'Lebens_'
'Lassen_'
'Kur'
'Krankheit_'
'Kra'
'Klimaanlage_'
'Kla'
'Kirk_'
'Kenntnis_'
'Justiz_'
'JavaScript_'
'Internationalen_'
'Grundrechte_'
'Gre'
'Good_'
'Go'
'Glaubwürdigkeit_'
'Gefahren_'
'Garten_'
'Fernsehen_'
'Facilities_'
'Environment_'
'Ed'
'Dor'
'Doha_'
'Diskussionen_'
'Dienste_'
'Details_'
'Demokraten_'
'Dem_'
'Cho'
'Ca'
'CAMBRIDGE_'
'Bä'
'Bur'
'Bu'
'Bon'
'Beziehung_'
'Bewertung_'
'Bes'
'Before_'
'Bay_'
'Bas'
'Bal'
'Bade'
'BI'
'Ausnahme_'
'Apartment_'
'Antrag_'
'Ala'
'Ak'
'Agrar'
'Ag'
'Administration_'
'AN'
'AI'
'AC'
'> _'
'800_'
'06_'
'...'
' > _'
'ы'
'р'
'з'
'ж'
'ähnliche_'
'Übergang_'
'zurückzu'
'zufrieden_'
'zuerst_'
'wood_'
'warten_'
'waiting_'
'wagen_'
'wa_'
'vorgesehen_'
'volle_'
'visitors_'
'vier'
'verwende_'
'vehicles_'
'uss'
'unterschiedliche_'
'university_'
'uner'
'tä'
'trouble_'
'trends_'
'totally_'
'tionen_'
'th'
'testing_'
'syn'
'swe'
'super_'
'strategischen_'
'stone_'
'ster'
'stem_'
'star'
'spi'
'sou'
'sofern_'
'sion_'
'settlement_'
'se'
'schriftlich_'
'savings_'
'sale_'
'rischen_'
'rest'
'residential_'
'reported_'
'replaced_'
'rechte_'
'ran_'
'ra'
'quantitative_'
'profits_'
'producing_'
'praktisch_'
'pollution_'
'pleasure_'
'planned_'
'persönlich_'
'outdoor_'
'ol_'
'observers_'
'nta'
'nsi'
'noted_'
'normalen_'
'nen'
'nearby_'
'ne'
'nan'
'möglichst_'
'mutual_'
'museums_'
'movements_'
'motor'
'mo'
'markt_'
'marketing_'
'machines_'
'luxurious_'
'lity_'
'lie_'
'liberalisation_'
'length_'
'leg'
'lea'
'kurzem_'
'kulturelle_'
'kor'
'kh'
'junge_'
'jam'
'ities_'
'items_'
'iss'
'ire_'
'ions'
'invest_'
'intellectual_'
'ine'
'igu'
'ied_'
'ichen_'
'höheren_'
'hundred_'
'http_'
'herrscht_'
'hardly_'
'happens_'
'hand'
'groß_'
'gri'
'gradually_'
'globalization_'
'gezogen_'
'generate_'
'gel'
'gehalten_'
'gained_'
'gaben_'
'fun_'
'freue_'
'formed_'
'finding_'
'fell_'
'feld_'
'familiar_'
'falling_'
'factor_'
'ete_'
'erklärte_'
'erk'
'erf'
'entscheidenden_'
'ens'
'endorse_'
'enc'
'electoral_'
'einzigen_'
'einheitlichen_'
'eingerichtet_'
'eingehen_'
'ei'
'drängen_'
'dly_'
'dining_'
'dimension_'
'didn_'
'demonstrated_'
'cul'
'crises_'
'cou'
'correct_'
'convenient_'
'constantly_'
'commodity_'
'command_'
'com'
'classic_'
'citizen_'
'chten_'
'cc'
'ca'
'bringing_'
'bound_'
'bo'
'bitten_'
'bezahlt_'
'betreffen_'
'beschäftigt_'
'begonnen_'
'bau_'
'bahwa_'
'ausgesprochen_'
'attractive_'
'attempts_'
'as'
'argue_'
'ar'
'approximately_'
'amounts_'
'ala'
'aircraft_'
'afternoon_'
'afford_'
'accompanied_'
'absch'
'abgeschlossen_'
'abe_'
'\\_'
'Zug'
'Zi'
'Würde_'
'Wolf'
'Within_'
'Where_'
'Weiter'
'WLAN_'
'Voraussetzung_'
'Verträge_'
'Verkehr_'
'Verbreitung_'
'USD_'
'Two_'
'Transport'
'Ton'
'Times_'
'TE'
'System'
'Städten_'
'Struktur_'
'Stra'
'Stellen_'
'Stadtzentrum_'
'Shanghai_'
'Schwellenländer_'
'Schweden_'
'Sau'
'Saint_'
'Regierungschefs_'
'Regelungen_'
'Real'
'Raum'
'Quelle_'
'Prinzip_'
'Politikern_'
'Pla'
'Peter_'
'Perspektive_'
'Pen'
'Partei'
'Par'
'Paket_'
'Or'
'Opposition_'
'Open'
'NE'
'Mubarak_'
'Mission_'
'Maß_'
'Marktes_'
'Mac_'
'Like_'
'Leit'
'Lei'
'LONDON_'
'LI'
'Körper_'
'Koordinierung_'
'Kluft_'
'Kern'
'Kal'
'Jedes_'
'Je_'
'Java_'
'Is'
'Iraqi_'
'Innovationen_'
'Hu'
'Hill_'
'Hand'
'HI'
'Gut'
'Gulf_'
'Gu'
'GmbH_'
'Gleich'
'Gi'
'Gewinne_'
'General'
'Geldpolitik_'
'Geh'
'Geb'
'Gast'
'Fähigkeiten_'
'Firstly_'
'Fal'
'Each_'
'Does_'
'Dadurch_'
'DE'
'Cor'
'Copenhagen_'
'Con'
'Clo'
'Chi'
'Check_'
'Charter_'
'Cameron_'
'Bürger'
'Buch'
'Bor'
'Beiträge_'
'Beitritts'
'Beide_'
'Ball'
'Ava'
'Arbeitsmarkt_'
'Andere_'
'Alt'
'Allgemeinen_'
'All'
'Abschließend_'
'://_'
'98_'
'85_'
'700_'
'37_'
'1994_'
'191'
'182'
'16'
'03_'
'.” _'
') - _'
' € _'
' -- _'
'“'
'ía_'
'ès_'
'ähnlich_'
'Österreich_'
'Öl_'
'Ökonomen_'
' – _'
'zieren_'
'zentralen_'
'youth_'
'yes_'
'wonach_'
'wollten_'
'wis'
'wireless_'
'windows_'
'wiederholt_'
'vorstellen_'
'vorgeschlagenen_'
'vollkommen_'
'voller_'
'visible_'
'vieler_'
'vi'
'verändern_'
'vert'
'verstärkt_'
'verk'
'val'
'usual_'
'ursprünglich_'
'urs_'
'unver'
'uni'
'und'
'ul'
'uit'
'twenty_'
'tut_'
'tre'
'tone_'
'tin'
'threats_'
'tag_'
'sustained_'
'suitable_'
'suffered_'
'su_'
'stelle_'
'stein_'
'stayed_'
'stag'
'ss'
'spot_'
'soweit_'
'solve_'
'ski'
'sit'
'si'
'selbst'
'seite_'
'sei'
'schlecht_'
'ré'
'rz'
'rg_'
'rg'
'retten_'
'rend'
'remained_'
'religiösen_'
're'
'promised_'
'pie'
'peoples_'
'pattern_'
'pace_'
'ot_'
'osi'
'ordinary_'
'oran'
'omi'
'og_'
'nse'
'nord'
'niveau_'
'mö'
'ms'
'monitor_'
'merk'
'menschlichen_'
'menschliche_'
'medicines_'
'meaningfully_'
'match_'
'ma'
'ly'
'listen_'
'let'
'lesson_'
'langsam_'
'langfristigen_'
'kt'
'kli'
'klein_'
'klare_'
'kamen_'
'japanischen_'
'irr'
'involves_'
'interface_'
'intelligence_'
'installed_'
'ingen_'
'indicated_'
'import_'
'ida'
'ics_'
'höchsten_'
'höchste_'
'ht'
'heits'
'hei'
'har'
'globalisation_'
'gg'
'geöffnet_'
'gewissen_'
'gestiegen_'
'gespielt_'
'gelungen_'
'gelegt_'
'gegenwärtige_'
'garantieren_'
'functioning_'
'frühen_'
'fruit_'
'fri'
'for'
'foot_'
'flat_'
'fewer_'
'festgestellt_'
'fashion_'
'expand_'
'erwähnt_'
'erstellt_'
'erinnert_'
'ering_'
'eri'
'ep'
'entstanden_'
'entlang_'
'entitled_'
'eni'
'enf'
'elite_'
'einfache_'
'east_'
'drink_'
'discipline_'
'dig'
'died_'
'delivered_'
'del'
'deeply_'
'deb'
'ction_'
'cri'
'copy_'
'cooperate_'
'contributed_'
'continuing_'
'contained_'
'considerably_'
'confirm_'
'communications_'
'classes_'
'ckt_'
'cing_'
'chu'
'cen'
'car'
'cable_'
'burg_'
'bur'
'browser_'
'briefly_'
'bie'
'betreiben_'
'betonen_'
'besitzt_'
'besitzen_'
'berühmten_'
'ben'
'bekämpfen_'
'beige'
'bedeuten_'
'bb'
'author_'
'ausgezeichneten_'
'aufge'
'audio_'
'attitude_'
'arabischen_'
'appe'
'ano'
'alliance_'
'akzeptiert_'
'ai'
'ah'
'agr'
'ag_'
'adjustments_'
']]._'
'Zinssätze_'
'Zahlen_'
'Willen_'
'Vorbereitung_'
'Volkes_'
'Verf'
'Verbesserungen_'
'Verb'
'USB_'
'Trend_'
'To'
'Tier'
'Swedish_'
'Sus'
'Summit_'
'Straßen_'
'Straßen'
'Steuer_'
'Stein'
'Start_'
'Staats_'
'Sport_'
'Sport'
'Spitze_'
'Soldaten_'
'Samsung_'
'Rückkehr_'
'Runde_'
'Rund'
'Regulierung_'
'Regimes_'
'Ratsvorsitz_'
'Ratschlag_'
'Programms_'
'Potenzial_'
'Pool_'
'Player_'
'Plat'
'Partnership_'
'Paper_'
'Page_'
'PPE_'
'Optionen_'
'Ol'
'Nr_'
'Note_'
'Nos_'
'Mon'
'Moment_'
'Mittelpunkt_'
'Ministers_'
'Mel'
'Mc'
'Mangel_'
'Man'
'Mah'
'Luft_'
'Luft'
'Libanon_'
'LE'
'LA'
'Küste_'
'Konvent_'
'Kon'
'Kil'
'Keynes_'
'Kern_'
'Israelis_'
'IC'
'Hostelsclub_'
'Herstellung_'
'Henry_'
'Hamburg_'
'Großteil_'
'Gerichtshof_'
'Gelder_'
'Gegen'
'Gedanken_'
'Gebiete_'
'Fuß_'
'Fu'
'Frühstücksbuffet_'
'Federation_'
'Express_'
'Est'
'Entwurf_'
'Einwanderung_'
'EC'
'Due_'
'Dis'
'Dienstleistungs'
'Dia'
'Democratic_'
'Dam'
'Czech_'
'Company_'
'College_'
'Char'
'Card'
'Canada_'
'CAN'
'Burg'
'Brussels_'
'Blog_'
'Bi'
'Beschluss_'
'Bedürfnisse_'
'Balkans_'
'Automobil'
'Auf'
'Audio_'
'Atlantic_'
'Arbeitgeber_'
'Any_'
'Ansichten_'
'Angelegenheit_'
'Angela_'
'Alter_'
'Adresse_'
'Ac'
'AS'
'80'
'5'
'38_'
'186'
'12'
'10'
'08_'
'03'
'/ _'
'/'
'."_'
'-/_'
'() _'
'''
'қа'
'қ'
'п_'
'п'
'über'
'zweifellos_'
'zusammen'
'zer_'
'zer'
'ye'
'xe'
'wonderful_'
'wesentliche_'
'weltweite_'
'welt'
'wars_'
'voraus_'
'vollen_'
'ving_'
'vin'
'verfügbar_'
'ver'
'ven'
'ursprünglichen_'
'unt'
'unity_'
'unf'
'une'
'ue'
'tti'
'tru'
'trip_'
'towns_'
'tisch_'
'threatened_'
'tersebut_'
'tens_'
'tend_'
'temporary_'
'teil_'
'teil'
'tb'
'tau'
'taste_'
'symbol_'
'swa'
'surrounded_'
'supplies_'
'submit_'
'su'
'store_'
'stimmt_'
'steigen_'
'statistics_'
'sses_'
'sser'
'spectrum_'
'speakers_'
'sparen_'
'somewhat_'
'sit_'
'sinnvoll_'
'sho'
'serviert_'
'sensible_'
'seeks_'
'see'
'secret_'
'seat_'
'scientists_'
'schlägt_'
'saved_'
'sauna_'
'sation_'
'satellite_'
'san'
'rä'
'rin_'
'rightly_'
'rig'
'rie_'
'rf'
'reply_'
'renewable_'
'remaining_'
'regularly_'
'regarded_'
'reflection_'
'ree'
'ration_'
'rare_'
'ram'
'radical_'
'pu'
'prä'
'prospect_'
'prepare_'
'poorest_'
'politically_'
'plays_'
'phi'
'ph'
'permitted_'
'percentage_'
'pel'
'overcome_'
'ov_'
'ore_'
'opinions_'
'opi'
'operational_'
'oma'
'offenen_'
'oe'
'nte'
'notwendige_'
'northern_'
'nken_'
'nin'
'nights_'
'nie'
'nicht'
'nd'
'naturally_'
'märkten_'
'motor_'
'mor'
'mental_'
'menga'
'mel'
'mba'
'mann_'
'manche_'
'lte_'
'lt'
'lived_'
'lists_'
'letzter_'
'lem'
'lan_'
'krise_'
'kov'
'kostenlos_'
'kontrollieren_'
'ken'
'kar'
'jüngste_'
'isten_'
'involvement_'
'input_'
'initially_'
'ind'
'ina_'
'imports_'
'ifi'
'identify_'
'hren_'
'hof_'
'hinzu'
'hing_'
'hilft_'
'hervor_'
'heißen_'
'handle_'
'gruppen_'
'griechische_'
'grand'
'grammatically_'
'gra'
'gewa'
'gestalten_'
'gerichtet_'
'generated_'
'genannte_'
'gefährdet_'
'freundlich_'
'frequently_'
'fourth_'
'fla'
'fis'
'firstly_'
'finanzieren_'
'financed_'
'feeling_'
'feed_'
'fears_'
'false_'
'fairly_'
'ese'
'eröffnet_'
'erreichbar_'
'ergriffen_'
'ergreifen_'
'ered_'
'engaged_'
'ender_'
'enabling_'
'enables_'
'emergency_'
'elt_'
'ell'
'eli'
'eite_'
'eit'
'edited_'
'eastern_'
'dürften_'
'drop_'
'driver_'
'dramatic_'
'dit'
'discussing_'
'direkten_'
'diplomacy_'
'dia'
'determination_'
'deserves_'
'derzeitigen_'
'democracies_'
'deiner_'
'daraus_'
'dar'
'dans_'
'dal'
'credible_'
'court_'
'convert_'
'contracts_'
'contextually_'
'containing_'
'constitute_'
'conditioning_'
'computers_'
'components_'
'cold_'
'coalition_'
'cker_'
'church_'
'charming_'
'channels_'
'cent_'
'careful_'
'capitalism_'
'brand_'
'bot_'
'bon'
'blocks_'
'black_'
'bin'
'bet'
'besuchen_'
'besonderen_'
'beschleunigen_'
'bes_'
'beobachten_'
'believes_'
'bekannten_'
'bek'
'beginnt_'
'bee'
'aufgezahlt_'
'attractions_'
'ationen_'
'at'
'asiatischen_'
'arti'
'architecture_'
'appointed_'
'applies_'
'angel'
'ange'
'ang'
'allies_'
'album_'
'age'
'afrikanischen_'
'affects_'
'adults_'
'adjustment_'
'ace'
'acceptable_'
'abo'
'aba'
'Zweck_'
'Zug_'
'Zimmern_'
'Zeichen_'
'Year_'
'Without_'
'Wieder'
'Wettbewerbs'
'Werten_'
'Weitere_'
'Wal'
'Veränderung_'
'Verständnis_'
'Verhandlungs'
'Verd'
'Verbot_'
'Valencia_'
'Va'
'Until_'
'Uni'
'Truppen_'
'Trotzdem_'
'Though_'
'The'
'Taliban_'
'Sur'
'Such'
'Stu'
'Stellungnahme_'
'Staatsanleihen_'
'Spiele_'
'Spar'
'Spa'
'Slo'
'Ski'
'Sha'
'Science_'
'Schul'
'School_'
'Schiff_'
'SP'
'Reise_'
'Reform'
'RD'
'Produkten_'
'Polizei_'
'Palästinenser_'
'Palace_'
'Pala'
'Ob_'
'Nor_'
'Ni'
'Natur'
'Nachrichten_'
'Mus'
'Minderheiten_'
'Menschheit_'
'Mehr_'
'Meeres'
'MEPs_'
'Libya_'
'Leistungs'
'Lehr'
'Labour_'
'Kulturen_'
'Kooperation_'
'Konsum'
'Komfort_'
'Kirche_'
'Kim_'
'KDE_'
'Jede_'
'Iranian_'
'Instabilität_'
'Indonesia_'
'Ideen_'
'IA'
'Having_'
'Größe_'
'Glück_'
'Gleichgewicht_'
'Geschäfte_'
'Gericht_'
'Gen'
'Gegner_'
'Gang_'
'Form'
'Fl'
'Fischerei_'
'Firma_'
'Finland_'
'Finde_'
'Finanzierungs'
'Ents'
'Empire_'
'Elemente_'
'Eisenbahn'
'Einwohner_'
'ES_'
'Din'
'Demokratien_'
'Definition_'
'Datenbank_'
'Datei'
'Dass_'
'Cuba_'
'Col'
'Class_'
'Chris_'
'Chinesen_'
'Charles_'
'Cas'
'CIA_'
'C5_'
'Boden_'
'Bin'
'Betriebs'
'Back'
'Asyl'
'Association_'
'Arabia_'
'Apple_'
'Anreize_'
'Anleger_'
'Anlage_'
'Amendments_'
'Adobe_'
'60'
'6'
'55_'
'49_'
'47_'
'3D_'
'34_'
'26'
'1992_'
'1945_'
'1000_'
'07_'
'02'
'.“ _'
'...._'
') (_'
'!'
' ….. _'
' )._'
'“ (_'
'я'
'ст'
'ла'
'к'
'де'
'š'
'ün'
'übersch'
'ú'
'öffnen_'
'é'
'äts'
'änge_'
'änder_'
'Übersetzung_'
'´_'
'zusätzlichen_'
'zustimmen_'
'zu'
'zeug'
'zerstört_'
'zar'
'zahl_'
'yt'
'ystem_'
'yo'
'ye_'
'worst_'
'wissenschaftlichen_'
'wesentlichen_'
'werk_'
'weiter'
'weist_'
'wa'
'vorgesehenen_'
'vorge'
'volume_'
'visited_'
'vis'
'violent_'
'victory_'
'verurteilt_'
'verleihen_'
'verkehr_'
'verehrte_'
'var'
'va'
'ute_'
'ult'
'ula'
'ul_'
'uk'
'uer'
'ually_'
'tätig_'
'tt'
'tours_'
'time'
'tief_'
'tic'
'threshold_'
'tet_'
'technische_'
'tea'
'targeted_'
'tar_'
'sweise_'
'substance_'
'strengthening_'
'strength_'
'sti'
'spring_'
'spo'
'solely_'
'sole_'
'sodass_'
'sm'
'sky_'
'shi'
'sen'
'schweren_'
'run'
'rte_'
'rm'
'ries_'
'richtlinie_'
'returns_'
'restructuring_'
'replace_'
'regeln_'
'refuse_'
'recorded_'
'rechtlichen_'
'rec'
'raw_'
'präsentiert_'
'proposing_'
'prison_'
'preparation_'
'pleasant_'
'photograph'
'pho'
'pfe'
'perform_'
'percent_'
'ped_'
'parks_'
'par_'
'par'
'ov'
'outstanding_'
'ongoing_'
'ona'
'oi'
'obligation_'
'oa'
'näher_'
'ntu'
'notice_'
'nochmals_'
'nnen_'
'nne'
'nl'
'nke'
'nder'
'natürlichen_'
'namen_'
'mä'
'mittels_'
'minority_'
'mini_'
'mini'
'miles_'
'met'
'looked_'
'logical_'
'locations_'
'lli'
'lin_'
'lending_'
'lay_'
'langfristig_'
'landscape_'
'kü'
'kostet_'
'kinds_'
'jpg_'
'journalists_'
'intention_'
'informieren_'
'inform_'
'ina'
'implications_'
'imbalances_'
'ils_'
'iklim_'
'ignored_'
'ibi'
'hte'
'hor'
'homes_'
'hardware_'
'handling_'
'ham_'
'größerer_'
'gree'
'greatly_'
'gn'
'gele'
'gef'
'gardens_'
'gan'
'fühlen_'
'frische'
'finde_'
'fees_'
'farming_'
'facts_'
'existence_'
'exception_'
'evident_'
'eva'
'este'
'esta'
'ess'
'esi'
'erwiesen_'
'erlebt_'
'enz'
'enk'
'enhanced_'
'ena'
'ek'
'einfacher_'
'ede'
'ech'
'dy_'
'dur'
'drei'
'drawn_'
'diverse_'
'dist'
'destination_'
'des'
'derart_'
'demi'
'decisive_'
'dead_'
'dd'
'cru'
'credibility_'
'convinced_'
'constructive_'
'consolidation_'
'conduct_'
'collection_'
'cohesion_'
'coast_'
'chosen_'
'chen'
'chaft_'
'cha'
'cam'
'breath'
'borrowing_'
'boot'
'blood_'
'blind_'
'bis'
'bildung_'
'bilateral_'
'betont_'
'beschränken_'
'bene'
'bela'
'basiert_'
'baru_'
'awareness_'
'authoritarian_'
'ausländischen_'
'au'
'ate'
'assure_'
'aside_'
'applying_'
'applicable_'
'appeal_'
'app'
'annehmen_'
'ann'
'angesprochen_'
'angegebenen_'
'advertising_'
'adopting_'
'ada_'
'acts_'
'Zentral'
'XI'
'Women_'
'Wissenschaftler_'
'Wirtschaftspolitik_'
'Wirklichkeit_'
'West'
'Wen'
'Weltkrieg_'
'Webseite_'
'Wachstums'
'WE'
'Vorsitzenden_'
'Voll'
'Vol'
'Vie'
'Verteidigungs'
'Verluste_'
'Verlust_'
'Verlauf_'
'Verge'
'Vereinigte_'
'Var'
'Val'
'Using_'
'Us'
'Ur'
'Unsicherheit_'
'Umfeld_'
'Ter'
'Telefon'
'Tele'
'Technology_'
'TO'
'Süden_'
'Stunde_'
'Stimm'
'Stability_'
'Sprache_'
'Special_'
'Sollte_'
'Sim'
'Signal_'
'Schuld'
'Scho'
'Sanktionen_'
'Rou'
'Roll'
'Rob'
'Risiko'
'Rettungs'
'Regional_'
'Ratspräsidentschaft_'
'Rats'
'Quellen_'
'Problemen_'
'Presse'
'Poker_'
'Place_'
'Palestinians_'
'Pact_'
'PA'
'Organe_'
'Once_'
'Offenheit_'
'ON_'
'OK_'
'Normen_'
'Norden_'
'Nobel_'
'Nigeria_'
'Nicht'
'Neben'
'Nazi_'
'Nat'
'Märkten_'
'Ministerpräsident_'
'Mikro'
'Met'
'Menge_'
'Massen'
'Mak'
'Lord_'
'Links_'
'Lin'
'Likewise_'
'Liefer'
'Legitimität_'
'Law_'
'Ky'
'Kurz_'
'Kräfte_'
'Konf'
'Klima_'
'Kha'
'Katastrophe_'
'Kas'
'Karten_'
'Kandidaten_'
'Innen'
'Inn_'
'Ihres_'
'Hü'
'Hy'
'Hir'
'Hilfs'
'Herrschaft_'
'Hauptbahnhof_'
'Handels_'
'Gründe_'
'Großen_'
'Grenz'
'Gesetzgebung_'
'Georgia_'
'Gegenstand_'
'Ge'
'GNU_'
'GH'
'Fälle_'
'Freuen_'
'Frankreichs_'
'Foto'
'Fortunately_'
'Fo'
'Fle'
'Fenster_'
'Far'
'Falls_'
'FO'
'Experten_'
'Donald_'
'Des_'
'Dep'
'DO'
'DER_'
'Common_'
'Colo'
'Cla'
'Cat'
'Bos'
'Bol'
'Besides_'
'Besch'
'Berücksichtigung_'
'Beijing_'
'Begriff_'
'Bars_'
'BE'
'Außenminister_'
'Authority_'
'Auftrag_'
'Aufnahme_'
'At'
'Assad_'
'Argentinien_'
'Anst'
'Anlagen_'
'Ambiente_'
'Aktien_'
'A3'
'; '
':'
'63_'
'192'
'09_'
'): _'
'({{_'
'('
''''
'• _'
'н'
'üsse_'
'übrigen_'
'überrascht_'
'überlassen_'
'ände_'
'Ära_'
'» _'
'zuständig_'
'zusammenge'
'zusammenarbeiten_'
'zunehmenden_'
'zukünftige_'
'zuges'
'ziemlich_'
'ys'
'wächst_'
'wirksame_'
'winter_'
'willkommen_'
'wie'
'whereas_'
'wenden_'
'welchem_'
'weather_'
'wave_'
'watch_'
'ware_'
'wand'
'wal'
'vorzu'
'virtually_'
'vielmehr_'
'verstärken_'
'versch'
'verpflichten_'
'verhindert_'
'vere'
'vely_'
'ungsp'
'uk_'
'ucht_'
'uan'
'turns_'
'tun'
'troops_'
'trillion_'
'travel'
'tons_'
'ting'
'til'
'tig'
'terror_'
'teile_'
'surpluses_'
'surplus_'
'succeed_'
'stärkere_'
'streets_'
'strategische_'
'storage_'
'stoff'
'stellung_'
'stammen_'
'spoken_'
'spiegelt_'
'specified_'
'soil_'
'ske'
'sk'
'sie'
'sex'
'seperti_'
'secara_'
'scha'
'sch'
'sand'
'rum_'
'ruling_'
'ruhig_'
'rti'
'rs'
'route_'
'rk'
'resistance_'
'requested_'
'repeated_'
'rent_'
'remind_'
'refugee_'
'reconstruction_'
'recommendations_'
'rat'
'rap'
'quo_'
'push_'
'pro'
'presents_'
'preis'
'praktische_'
'possibilities_'
'ports_'
'populist_'
'politisches_'
'po'
'personnel_'
'patent_'
'passengers_'
'passenger_'
'participants_'
'pan'
'pal'
'ow_'
'overlooking_'
'ously_'
'organisationen_'
'op_'
'op'
'ommen_'
'ology_'
'ola'
'offices_'
'occurred_'
'object_'
'noise_'
'nf'
'neighbouring_'
'nahm_'
'nachhaltig_'
'nachge'
'multilateral_'
'mt_'
'mpa'
'mountains_'
'mou'
'mono'
'mm'
'meters_'
'mere_'
'men'
'meals_'
'marquis_'
'mandate_'
'logy_'
'lla'
'leistung_'
'lebens'
'layer_'
'kämpfen_'
'kraft_'
'konzentriert_'
'kleiner_'
'kita_'
'killing_'
'ki'
'keineswegs_'
'kation_'
'kan'
'jemand_'
'jahr_'
'ize_'
'itu'
'islands_'
'iron_'
'ious_'
'ional_'
'involving_'
'insufficient_'
'innovations_'
'inh'
'indicate_'
'inden_'
'incentives_'
'ili'
'idi'
'ide_'
'hil'
'heavy_'
'hearing_'
'haltung_'
'hal'
'haft_'
'größeres_'
'großem_'
'grown_'
'greenhouse_'
'grateful_'
'governing_'
'gor'
'ger'
'geplant_'
'gener'
'gemein'
'gelöst_'
'gefährlich_'
'geboren_'
'fur'
'fu'
'ften_'
'freundliche_'
'fossil_'
'fortsetzen_'
'folg'
'flights_'
'festgelegt_'
'fer_'
'facto_'
'ez_'
'extrem_'
'exclusion_'
'exciting_'
'eur_'
'ete'
'essi'
'escape_'
'erzeugt_'
'erst'
'ersch'
'error_'
'entwickelte_'
'entsprechen_'
'enn'
'enabled_'
'empfangen_'
'emerged_'
'em'
'einzigartigen_'
'einerseits_'
'educational_'
'economically_'
'eb'
'eat_'
'earth_'
'ea_'
'doctrine_'
'distinguish_'
'disputes_'
'diskutieren_'
'dependent_'
'dep'
'dem'
'deck'
'cy'
'creative_'
'cra'
'cop'
'consistent_'
'connections_'
'conclusions_'
'collaboration_'
'clubs_'
'ci_'
'ci'
'chi'
'chef_'
'channel_'
'centres_'
'cation_'
'castle_'
'bro'
'boo'
'bisa_'
'birth_'
'bers'
'bere'
'behörden_'
'behandeln_'
'begins_'
'beauty_'
'bauen_'
'bau'
'bathrooms_'
'basieren_'
'barer_'
'baby_'
'ay_'
'aufmerksam_'
'ast'
'art'
'arise_'
'anywhere_'
'ancient_'
'an'
'amongst_'
'amenities_'
'alcohol_'
'alb'
'ala_'
'air'
'ag'
'acting_'
'accounting_'
']]'
'Zuständigkeit_'
'Yo'
'Währungen_'
'Who_'
'Whether_'
'Wall_'
'WASHINGTON_'
'Vorschlägen_'
'Vorbe'
'Viertel_'
'Vertretern_'
'Verfolgung_'
'Verbündeten_'
'Verbrechen_'
'Veranstaltung_'
'Vel'
'UR'
'Trans'
'Titel_'
'Thanks_'
'Tha'
'Test'
'Terrasse_'
'Termin'
'Tages'
'Switzerland_'
'Suite_'
'Strukturen_'
'Statt_'
'Start'
'Sony_'
'Sitz_'
'Sind_'
'Similarly_'
'Set_'
'Serie_'
'Schweizer_'
'Schlussfolgerungen_'
'Schle'
'SA_'
'Rumänien_'
'Ruhe_'
'Road_'
'Reichen_'
'Rei'
'Ref'
'Rather_'
'Ram'
'Rahmen'
'Rad'
'Premier_'
'Pläne_'
'Partnerschaften_'
'Palestine_'
'PRO'
'Orten_'
'Nord'
'Nizza_'
'Next_'
'NO'
'Morgen_'
'Module_'
'Mitgliedstaat_'
'Mitgliedsstaaten_'
'Mitgliedern_'
'Minute_'
'Minderheit_'
'Min'
'Micro'
'Menü_'
'Mensch_'
'May'
'Mac'
'MS_'
'Luc'
'Liberal'
'Lebensmittel'
'LL'
'Küsten'
'Krisen'
'Konsequenzen_'
'Kommunikations'
'Kit'
'Kilometer_'
'Ki'
'Kauf'
'Kampagne_'
'Jacques_'
'Internationale_'
'Institution_'
'Insgesamt_'
'Insbesondere_'
'Inflations'
'Import'
'IF'
'Hussein_'
'Hi'
'Helsinki_'
'Handeln_'
'Hai'
'Grün'
'Growth_'
'Golden_'
'Gipfel_'
'Gil'
'GS'
'GI'
'GE'
'Früh'
'Freunde_'
'Fotos_'
'Feld'
'FA'
'Europa'
'Erklärungen_'
'Erk'
'Entw'
'Ele'
'Einw'
'Einstellung_'
'Einer_'
'Effizienz_'
'EI'
'Dutch_'
'Druck'
'Distribution_'
'Desk_'
'Design'
'Demo'
'Darin_'
'Cyprus_'
'Cu'
'Cra'
'Cold_'
'Chancellor_'
'Card_'
'Captain_'
'Cap'
'Cam'
'Call'
'Cab'
'CF'
'Budgets_'
'Box_'
'Blue_'
'Blair_'
'Black_'
'Bla'
'Beteiligung_'
'Besucher_'
'Bereitschaft_'
'Bag'
'Avi'
'Auslands'
'Auge_'
'Ari'
'Arbeiten_'
'Ans'
'Anleihen_'
'Angaben_'
'Aktionen_'
'Aktion_'
'Ai'
'Abhängigkeit_'
'AD'
'78_'
'31'
'237'
'187'
'00'
'''_'
'  _'
' !_'
'” (_'
'’._'
'са'
'ны'
'ке'
'и_'
'е_'
'ды_'
'да'
'ž'
'überaus_'
'öffentlich_'
'ét'
'är_'
'°_'
'zählt_'
'zuf'
'yield_'
'wu'
'wohn'
'wn_'
'wl'
'wirken_'
'wife_'
'werfen_'
'weitgehend_'
'weit'
'waters_'
'warning_'
'wachsen_'
'vorher_'
'vorbei_'
'voluntary_'
'vir'
'verringert_'
'verhe'
'verhalten_'
'verd'
'van'
'uren_'
'upgrade_'
'unterzeichnet_'
'untergraben_'
'universities_'
'umzu'
'umgeben_'
'tures_'
'tum'
'tting_'
'tritt_'
'trial_'
'tourism_'
'tier'
'tes'
'tennis_'
'tele'
'teilnehmen_'
'techno'
'tea_'
'taxpayers_'
'tas_'
'tant'
'tal_'
'tag'
'tables_'
'süd'
'sämtliche_'
'sz'
'surface_'
'suggested_'
'sucht_'
'substantially_'
'subsequent_'
'stylish_'
'stocks_'
'stic_'
'steuer'
'stand'
'stadt_'
'sozialer_'
'sor'
'sobald_'
'slightly_'
'sli'
'sische'
'sion'
'sichern_'
'sicherheit_'
'sichere_'
'sheet_'
'she'
'sharp_'
'sf'
'setz'
'senken_'
'securities_'
'secular_'
'schu'
'sauber_'
'san_'
'sake_'
'rum'
'rou'
'rna'
'rio'
'ride_'
'respects_'
'respected_'
'rent'
'renowned_'
'ren'
'remarks_'
'religion_'
'reject_'
'rein_'
'reich'
'regret_'
'regionaler_'
'red'
'recommended_'
'reck'
'rechten_'
'reb'
'real'
'rc'
'rant'
'puts_'
'prom'
'profile_'
'produziert_'
'produces_'
'produ'
'pressures_'
'plenary_'
'pha'
'pf'
'pers'
'perceived_'
'paying_'
'password_'
'pan_'
'pai'
'ought_'
'orts_'
'orit'
'organized_'
'organised_'
'opp'
'opo'
'ond'
'onal_'
'ole'
'offiziell_'
'odi'
'nötig_'
'nz'
'novel_'
'nn_'
'nine_'
'nic'
'neu'
'net'
'nb'
'nachhaltigen_'
'mü'
'muslimischen_'
'mpe'
'moralische_'
'mont'
'moments_'
'ml'
'mix_'
'mistake_'
'minor_'
'mina'
'mil'
'mi_'
'mes_'
'mela'
'medi'
'meal_'
'mber'
'mati'
'manufacturers_'
'mani'
'mand'
'managing_'
'ländern_'
'lug'
'loved_'
'lounge_'
'lots_'
'lor'
'loc'
'lk'
'lin'
'lig'
'ließen_'
'les'
'ler'
'lat'
'lan'
'lad'
'kurzfristig_'
'kurze_'
'ks'
'kre'
'konfrontiert_'
'kern_'
'kehr'
'kat_'
'karte_'
'jährigen_'
'jegliche_'
'iz'
'iti'
'istischen_'
'iri'
'invite_'
'integriert_'
'institution_'
'instability_'
'inst'
'ino_'
'ino'
'ini'
'inevitable_'
'inclusion_'
'ignore_'
'ig'
'ichten_'
'ial'
'hydro'
'hs_'
'hr_'
'hoping_'
'honest_'
'hes_'
'herzlich_'
'hergestellt_'
'heraus_'
'heavily_'
'halb'
'haften_'
'graphics_'
'grad'
'glass_'
'gewe'
'gets_'
'gesellschaft_'
'geringe_'
'genutzt_'
'gegen'
'gefährden_'
'gefa'
'gear'
'gat'
'furnished_'
'fuels_'
'fte_'
'fs_'
'freuen_'
'foundation_'
'formen_'
'ford_'
'foot'
'fonds_'
'floors_'
'fitness_'
'fill_'
'ffen'
'fest'
'fertig'
'failing_'
'experienced_'
'expanding_'
'exceptional_'
'evaluation_'
'eti'
'erte'
'ert'
'erstmals_'
'erstellen_'
'erne'
'erlauben_'
'erkennt_'
'erheblich_'
'erfolgreiche_'
'erb'
'equity_'
'entscheidend_'
'ently_'
'eno'
'enhance_'
'enge_'
'endes_'
'elo'
'einst_'
'eid'
'ego'
'effectiveness_'
'easing_'
'durchzuführen_'
'dramatisch_'
'dor_'
'doctors_'
'disposal_'
'directed_'
'difficulty_'
'dient_'
'di'
'deflation_'
'decken_'
'dealt_'
'dates_'
'dark_'
'dam'
'cua'
'cosy_'
'costly_'
'corner_'
'convergence_'
'conventional_'
'contents_'
'constant_'
'consequence_'
'commit_'
'colours_'
'colour'
'colo'
'co'
'cleaning_'
'cil'
'cies_'
'chw'
'chief_'
'chal'
'chain_'
'cash_'
'capabilities_'
'cameras_'
'broken_'
'breiten_'
'brauch'
'boot_'
'blo'
'bir'
'betroffenen_'
'benefited_'
'bekommt_'
'beinhaltet_'
'beinahe_'
'behaviour_'
'begun_'
'beenden_'
'bedrooms_'
'ball'
'autumn_'
'auto'
'ausgezeichnete_'
'ausgerichtet_'
'ausgelöst_'
'aufbauen_'
'ative_'
'atau_'
'aspect_'
'array_'
'armen_'
'are'
'arb'
'anzuzeigen_'
'ante'
'anderswo_'
'ande'
'ana'
'amp_'
'amp'
'ambition_'
'ail'
'aged_'
'addressing_'
'adapt_'
'ada'
'acce'
'abuse_'
'abgesch'
'abe'
'Zwecke_'
'Zo'
'Zeitung_'
'Zahlungs'
'Wor'
'Winter_'
'William_'
'Wikitravel_'
'Wiki'
'Wi'
'We'
'Wahrscheinlichkeit_'
'Vorstellung_'
'Vorbild_'
'View_'
'Vier'
'Video'
'Vice_'
'Vi'
'Verz'
'Versicherungs'
'Verg'
'Ve'
'Update_'
'Up_'
'Umweltschutz_'
'Ums'
'Umgang_'
'Thailand_'
'Texas_'
'TH'
'Syn'
'Swiss_'
'Super'
'Sub'
'Stä'
'Studio_'
'Strasbourg_'
'Stattdessen_'
'Star'
'Stan'
'Staff_'
'Spezialitäten_'
'Souveränität_'
'Sierra_'
'Sho'
'Set'
'Serbien_'
'Selbstverständlich_'
'Sel'
'Schei'
'Sach'
'Saa'
'SM'
'Rücks'
'Roman'
'Rom_'
'Rom'
'Regulierungs'
'Regierungskonferenz_'
'Referendum_'
'Rat'
'RT'
'Prüfung_'
'Projekt'
'Produkt_'
'Past'
'Pakete_'
'PSE_'
'PL_'
'PL'
'Otherwise_'
'Off'
'Northern_'
'Nonetheless_'
'News_'
'Nero_'
'NI'
'ND'
'Mädchen_'
'Muslime_'
'Multi'
'Mittel'
'Methoden_'
'Mehr'
'Maria_'
'Maastricht_'
'Licht_'
'Lern'
'Laufe_'
'Lauf'
'Lau'
'Lake_'
'LabVIEW_'
'Lab'
'LO'
'Können_'
'Kunden'
'Kuba_'
'Kongress_'
'Komponenten_'
'Kommunismus_'
'Klasse_'
'Kir'
'Key'
'Ken'
'Kara'
'Jones_'
'Islands_'
'Innenstadt_'
'Index_'
'Inc'
'IR'
'IG'
'Hunger_'
'Hezbollah_'
'Hersteller_'
'Hea'
'Has'
'Haftung_'
'Hafen_'
'HTML_'
'Gründung_'
'Grundsatz_'
'Gh'
'Gewalt'
'Gesicht_'
'Gerichte_'
'Gerechtigkeit_'
'Gemeinden_'
'Geist_'
'Gara'
'Ga'
'GA'
'Format_'
'Ford_'
'Fla'
'Fischerei'
'Fischer_'
'Finnish_'
'Fi_'
'Ferner_'
'Faktor_'
'Ex'
'Erst_'
'Entscheidungsträger_'
'Eltern_'
'Element_'
'Einkommens'
'Education_'
'EM'
'Drogen'
'Disk'
'Digital_'
'Di_'
'Deutschen_'
'Der'
'Department_'
'Delegation_'
'Deck'
'Deb'
'De'
'Darfur_'
'Cy'
'Cro'
'Constitutional_'
'California_'
'CD'
'CC'
'Bulgaria_'
'Budapest_'
'Bud'
'Bri'
'Branchen_'
'Big_'
'Betr'
'Bestandteil_'
'Beschlüsse_'
'Belgium_'
'Bea'
'Be_'
'Bahnhof_'
'B5_'
'Australia_'
'Argument_'
'Anzeichen_'
'Anpassung_'
'Anlass_'
'Angebote_'
'Alm'
'Agentur_'
'Afrikas_'
'Action_'
'AV'
'AP'
'AL'
'AB'
'97_'
'68_'
'600_'
'43_'
'41_'
'27'
'24'
'22'
'1985_'
'189'
'01'
'.“_'
'ә'
'ұ'
'ме'
'ле'
'й'
'жа'
'üt'
'überwinden_'
'überprüft_'
'übernimmt_'
'üb'
'ön'
'ó_'
'ña_'
'én'
'ég'
'ç'
'ätzen_'
'ätz'
'älteren_'
'äl'
'Übertragung_'
'Überprüfung_'
'Überleben_'
'Öffnung_'
'{{_'
'zweit'
'zwei'
'zugunsten_'
'zione_'
'zierung_'
'zieht_'
'zerstören_'
'zeichen_'
'zahl'
'yr'
'yar'
'wünsche_'
'worrying_'
'woman_'
'with'
'win'
'wiederholen_'
'whilst_'
'western_'
'werte_'
'welcoming_'
'wart'
'wards_'
'wan'
'wahren_'
'vorliegenden_'
'vorlegen_'
'von'
'virus_'
'viertel_'
'via'
'verteidigen_'
'versions_'
'verschärft_'
'vermitteln_'
'verf'
'valuable_'
'valid_'
'ux_'
'uta'
'ussi'
'uri'
'unwahrscheinlich_'
'unterge'
'unstable_'
'uns'
'unpa'
'unn'
'unfair_'
'underway_'
'understood_'
'underlying_'
'unco'
'umso_'
'ums'
'umfangreiche_'
'umb'
'ular_'
'uf_'
'uch'
'ture_'
'tu_'
'tter_'
'trip'
'treat_'
'tragic_'
'tra_'
'tori'
'tobacco_'
'tlich_'
'tit'
'tions'
'terrorists_'
'taxi_'
'tas'
'tap'
'suites_'
'successes_'
'strategie_'
'stops_'
'steigenden_'
'steel_'
'starts_'
'ssel'
'sph'
'spezifische_'
'speichern_'
'spect'
'spanischen_'
'spaces_'
'sp'
'socio'
'smooth_'
'sme'
'sma'
'slowdown_'
'sive'
'sil'
'sieren_'
'showed_'
'shop_'
'shed_'
'shares_'
'shadow_'
'serving_'
'selling_'
'schöne_'
'schä'
'schwe'
'schutz_'
'schlimmsten_'
'sal'
'rücken_'
'rück'
'rup'
'rub'
'rta'
'roll_'
'robust_'
'ris'
'rip'
'rik_'
'rier'
'richtigen_'
'revi'
'reu'
'respective_'
'residence_'
'requirement_'
'reputation_'
'reporting_'
'regimes_'
'recruit'
'recognized_'
'reale_'
'rb'
'rapporteurs_'
'ral_'
'rain'
'rail_'
'qualifi'
'q'
'pushed_'
'providers_'
'proposes_'
'prominent_'
'progressive_'
'previously_'
'premi'
'preis_'
'prefer_'
'practically_'
'posts_'
'pointed_'
'pic'
'phon'
'pert'
'periods_'
'peri'
'performed_'
'pays_'
'passieren_'
'parti'
'palästinensischen_'
'owners_'
'oth'
'ost'
'optimal_'
'oppose_'
'opponents_'
'oph'
'ont'
'ona_'
'olin'
'oli'
'oleh_'
'og'
'offen'
'occasion_'
'obtained_'
'obs'
'nsch'
'noti'
'notes_'
'none_'
'nn'
'nit'
'nik_'
'nc'
'nan_'
'mögliche_'
'mp'
'mon_'
'mo_'
'mixed_'
'min'
'mes'
'mengha'
'mein'
'mbi'
'markt'
'magnificent_'
'lösung_'
'lve'
'lowering_'
'load_'
'lik'
'lieber_'
'lf'
'leverage_'
'lev'
'leu'
'lets_'
'legitimate_'
'legend'
'legally_'
'lasting_'
'lam'
'lake_'
'lai'
'ky_'
'ktion_'
'kti'
'konkreten_'
'komme_'
'kleinere_'
'key'
'kes_'
'kernel_'
'kennt_'
'kal'
'jungen_'
'joining_'
'ji_'
'iv_'
'italienischen_'
'issen_'
'ised_'
'ise'
'ionen_'
'investieren_'
'intentions_'
'installiert_'
'insi'
'implies_'
'immense_'
'illi'
'ildung_'
'ika_'
'ign'
'igen'
'iel_'
'ieben_'
'ideology_'
'ideological_'
'icher'
'hts'
'hr'
'hopes_'
'hma'
'hingewiesen_'
'hingegen_'
'hielt_'
'hence_'
'heads_'
'hau'
'gründen_'
'gross_'
'gne_'
'gewähren_'
'gestern_'
'geschrieben_'
'geschieht_'
'gering_'
'gel_'
'geführten_'
'gefördert_'
'ge'
'gas'
'gabe_'
'friend_'
'freely_'
'fragile_'
'follows_'
'flo'
'fle'
'ffe'
'fertig_'
'ferner_'
'fate_'
'faith_'
'failures_'
'fahrt_'
'ext'
'explore_'
'expert_'
'existieren_'
'ever'
'etablieren_'
'estimates_'
'esti'
'essen'
'esen_'
'esch'
'erreich'
'ermutigen_'
'erlangen_'
'erhielt_'
'erge'
'entscheidende_'
'ents_'
'encouraging_'
'enco'
'emi'
'electricity_'
'einzelne_'
'eingebracht_'
'eing'
'eind'
'eigenes_'
'eich'
'effektiv_'
'een_'
'edge_'
'ebene_'
'eba'
'eau_'
'eas'
'earned_'
'durchführen_'
'dritte_'
'dream_'
'dom'
'displayed_'
'disk_'
'dise'
'dip'
'dic'
'desto_'
'describes_'
'ders_'
'derer_'
'delighted_'
'dedicated_'
'decorated_'
'dapat_'
'dahin_'
'cre'
'count_'
'corr'
'corporations_'
'copyright_'
'conservative_'
'con'
'composed_'
'component_'
'complicated_'
'coa'
'cke'
'chne'
'chn'
'chemical_'
'career_'
'camp_'
'by'
'busy_'
'breite_'
'bou'
'boom_'
'bond_'
'bomb'
'besorgt_'
'beschränkt_'
'beschließen_'
'berg'
'beraten_'
'bera'
'behauptet_'
'bed'
'band_'
'ba_'
'aut_'
'auswirken_'
'ausgehen_'
'aufweisen_'
'ath'
'asso'
'assen_'
'articles_'
'arn'
'ari_'
'ard'
'ap'
'anzunehmen_'
'angesehen_'
'anerkannt_'
'amm'
'amerikanischer_'
'alternatives_'
'ald'
'ahn'
'ahl'
'admit_'
'adds_'
'acknowledge_'
'achen_'
'ac'
'abwe'
']'
'Zwischen_'
'Zwar_'
'Zusammenhalt_'
'Zuge_'
'Zucker'
'Währungsfonds_'
'Wirtschafts_'
'Wikicars_'
'Wi_'
'Werk_'
'Werden_'
'Weiß'
'Weit'
'Wechselkurs'
'Vorlage_'
'Vorausschau_'
'Vielen_'
'Verfassungs'
'Verein'
'Valley_'
'Use_'
'Untersuchungen_'
'Unternehmens_'
'Universitäten_'
'Tätigkeit_'
'Traum_'
'Tonnen_'
'Todesstrafe_'
'Tip_'
'Tim'
'Tiere_'
'Ticket_'
'Tibet_'
'Three_'
'Thomas_'
'Tempo_'
'Teilnehmer_'
'Tee'
'Support_'
'Sunday_'
'Sudan_'
'Stärke_'
'Strukturfonds_'
'Straßburg_'
'Strategy_'
'Steuerzahler_'
'Spezial'
'Sommer'
'Sid'
'Show_'
'Sep'
'Sein_'
'Schwerpunkt_'
'Schreiben_'
'Schlüssel_'
'Scheitern_'
'Sauna_'
'SU'
'Rock_'
'River_'
'Rent'
'Red'
'Rechten_'
'Rap'
'Qualitäts'
'Pul'
'Project_'
'Produktivität_'
'Post_'
'Politiken_'
'Point_'
'Plan'
'Pay'
'Pap'
'PO'
'PE'
'Ost'
'Opera_'
'ON'
'Normal'
'Nik'
'Nie'
'Nacht'
'Nachricht_'
'My'
'Mutter_'
'Muslims_'
'Mur'
'Modernisierung_'
'Modern_'
'Mobile_'
'Mini'
'Medizin_'
'Mechanismus_'
'Maßnahme_'
'Material_'
'Mala'
'Magi'
'Mag'
'MP'
'ME'
'MB_'
'Lib'
'LateRooms_'
'Lat'
'Künstler_'
'Kunst'
'Kr'
'Konvents_'
'Konvention_'
'Konsum_'
'Koalition_'
'Klimawandels_'
'Kin'
'Kat'
'Kalten_'
'Jugend'
'Joseph_'
'Jordan_'
'Ji'
'Jahrzehnte_'
'Ja_'
'Ir'
'Ing'
'Industry_'
'ISO_'
'IL'
'Hypotheken'
'Hungary_'
'Hei'
'Hauses_'
'Guests_'
'Gri'
'Grab'
'Gleichheit_'
'Gewicht_'
'Geschwindigkeit_'
'Gesch'
'Gerichts'
'Gentoo_'
'Gemeinschaften_'
'Gem'
'Garden_'
'GB_'
'Fun'
'Freiheiten_'
'Free'
'Fil'
'Farb'
'Exchange_'
'Esta'
'Erstellung_'
'Erfolgs'
'Entschließungsantrag_'
'Em'
'Elite_'
'Einhaltung_'
'Effekt_'
'EP'
'EL_'
'Dro'
'Drittel_'
'Diskriminierung_'
'Direkt'
'Deutschlands_'
'DS'
'Cruz_'
'Cou'
'Com'
'Chu'
'Christ'
'Cher'
'CON'
'CO'
'CA_'
'Bürokratie_'
'Bulgarien_'
'Boot_'
'Billionen_'
'Bewältigung_'
'Bewegungen_'
'Besitz_'
'Besitz'
'Bern'
'Bemerkung_'
'Beifall_'
'Beha'
'Beh'
'Bedenken_'
'Bang'
'Az'
'Außenpolitik_'
'Ausw'
'Ausführungen_'
'Aufstieg_'
'Armen_'
'Arbeitsplätzen_'
'Anschluss_'
'Anne'
'Anleihe'
'Anbetracht_'
'Ana'
'Am'
'Alles_'
'Alexander_'
'Ale'
'Airlines_'
'AU'
'ASEAN_'
';&_'
'50'
'40'
'20'
'1993_'
'1960_'
'196'
'195'
'183'
'180_'
'04_'
''' (_'
'$_'
' +_'
'€'
'“ – _'
'’, _'
'ү'
'те'
'ра'
'ни'
'й_'
'ба'
'üssel'
'ührung_'
'überzeugen_'
'éa'
'äch'
'ße_'
'Übergangs'
'Übereinkommen_'
'Ökonomie_'
' '
'}} **{{_'
'zy'
'zweiter_'
'zuvor_'
'zutiefst_'
'zugrunde_'
'zt_'
'zones_'
'zogen_'
'zier'
'zi_'
'zers'
'zentren_'
'xp'
'wohnen_'
'wissenschaftliche_'
'wirkt_'
'wirkliche_'
'winning_'
'whi'
'whenever_'
'wesen_'
'web'
'weapon_'
'warned_'
'wake_'
'vorhandenen_'
'vorgenommen_'
'voran_'
'vollständige_'
'voll'
'vielfältige'
'vieles_'
'verä'
'verz'
'verwe'
'verstanden_'
'versi'
'verlangt_'
'verl'
'verfügbaren_'
'verda'
'verboten_'
'variable_'
'vag'
'uto'
'urs'
'uring_'
'unterstütze_'
'unters'
'unsch'
'uno'
'unions_'
'ungsf'
'ung'
'undoubtedly_'
'underground_'
'unden_'
'uncertainty_'
'umwelt'
'ultra'
'ule'
'uis'
'uh'
'ud_'
'türkischen_'
'twice_'
'transfers_'
'tr'
'tour_'
'tok'
'tie'
'ticket_'
'tha'
'temperature_'
'tech_'
'teams_'
'tche'
'taten_'
'tand_'
'tal'
'tackle_'
'systemen_'
'ständigen_'
'studio_'
'struck_'
'stream_'
'stl'
'sterben_'
'steigern_'
'staying_'
'staat_'
'sst_'
'sse'
'spezifischen_'
'spezielle_'
'sorg'
'sn'
'ska'
'sig'
'side'
'sey_'
'set'
'seh'
'schrittweise_'
'scho'
'schemes_'
'schaden_'
'scenario_'
'sbe'
'sau'
'satz_'
'sand_'
'sad'
'rü'
'ruhigen_'
'rufen_'
'rse'
'rot'
'roles_'
'rl'
'rkt_'
'rily_'
'ret'
'restricted_'
'restored_'
'ress_'
'resolutions_'
'rescue_'
'renoviert_'
'registration_'
'rede'
'rechtzeitig_'
'ratio_'
'rar'
'rapide_'
'raph'
'rank'
'qui_'
'qualified_'
'pus'
'pur'
'pt_'
'prop'
'produktive'
'produktion_'
'producer_'
'ppe'
'power'
'positiv_'
'plu'
'planung_'
'piel_'
'pens'
'pen_'
'pay'
'patterns_'
'pas_'
'partnerships_'
'our'
'ou'
'ose'
'orte'
'oro'
'orders_'
'ora_'
'opt_'
'ope'
'ong_'
'ome_'
'offizielle_'
'occupied_'
'observations_'
'nö'
'nte_'
'nst'
'normale_'
'non'
'nk_'
'nj'
'nisse_'
'nig'
'niedriger_'
'niedrig_'
'ngs_'
'ngs'
'ngan_'
'nes'
'nea'
'nden'
'natur'
'nationalist_'
'namens_'
'nahe'
'nacht'
'museum_'
'multiple_'
'mother_'
'mortgage_'
'moderner_'
'missing_'
'mine_'
'migrants_'
'messen_'
'messages_'
'mess'
'ment'
'mea'
'mate'
'mat'
'marks_'
'marked_'
'manager_'
'mail'
'macroeconomic_'
'ln'
'link'
'lenken_'
'leiden_'
'leichter_'
'lautet_'
'lauf'
'lar'
'lant'
'lac'
'künftigen_'
'kw'
'krieg_'
'kra'
'kosten'
'kommunistischen_'
'kom'
'klicken_'
'klaren_'
'kl'
'kit'
'jährlichen_'
'jä'
'justified_'
'judge_'
'journey_'
'jemals_'
'jan'
'iven_'
'ito'
'ition'
'israelischen_'
'israelische_'
'ising_'
'irre'
'inva'
'interpretation_'
'internen_'
'intend_'
'institutionellen_'
'inn'
'ink'
'inis'
'infe'
'ines_'
'indischen_'
'impression_'
'im'
'ille'
'ility_'
'ile'
'ild_'
'ij'
'ici'
'ica_'
'hä'
'hung_'
'humans_'
'hren'
'hoped_'
'home'
'holidays_'
'hole_'
'hoff'
'hinzufügen_'
'hinweg_'
'hinge'
'heritage_'
'herauszu'
'hat'
'has'
'harm'
'gä'
'gutem_'
'grant_'
'globalis'
'gge'
'gewalt'
'geprüft_'
'generous_'
'gene'
'gem'
'gelingt_'
'gedacht_'
'geblieben_'
'gallery_'
'fre'
'forthcoming_'
'forth_'
'fort_'
'forest_'
'fly_'
'flug'
'fleet_'
'ffer'
'festzustellen_'
'fern'
'fei'
'fare_'
'fans_'
'facility_'
'facilitate_'
'extraordinary_'
'expe'
'etzen_'
'etr'
'essentially_'
'ersetzen_'
'err'
'ero'
'erli'
'erkunden_'
'erfüllt_'
'erfordern_'
'epi'
'eo_'
'entf'
'enterprise_'
'enger_'
'eng'
'end'
'emotional_'
'ements_'
'eller_'
'einzuführen_'
'einverstanden_'
'einfachen_'
'eigener_'
'ehr'
'egal_'
'ee'
'edly_'
'eda'
'ease_'
'dw'
'duties_'
'dt_'
'ds'
'druck_'
'drivers_'
'dol'
'doctor_'
'divide_'
'ding'
'digit'
'dier'
'dialog_'
'deswegen_'
'destroy_'
'designs_'
'description_'
'depth_'
'depending_'
'departure_'
'demokratischer_'
'delicious_'
'defeat_'
'dee'
'debts_'
'debian_'
'deals_'
'cti'
'cted_'
'critique_'
'creat'
'counter'
'cont'
'concentrate_'
'compete_'
'comparison_'
'coherent_'
'ción_'
'civilian_'
'choices_'
'challenging_'
'catch_'
'cat'
'carrying_'
'cap'
'cal'
'buses_'
'bug_'
'buchen_'
'bright_'
'brief_'
'bridge_'
'break'
'bold_'
'bill_'
'bild_'
'bewältigen_'
'beträgt_'
'beteiligt_'
'bestätigt_'
'besar_'
'beruhen_'
'bericht_'
'bemühen_'
'bell'
'beings_'
'behoben_'
'beg'
'befassen_'
'bef'
'beeinflussen_'
'bedeutenden_'
'auswählen_'
'ausländische_'
'ausgeb'
'aufzubauen_'
'auftreten_'
'aub'
'att'
'ase'
'artists_'
'ars'
'arrived_'
'appropriations_'
'appreciated_'
'appearance_'
'apparent_'
'anz'
'anspr'
'annually_'
'anhand_'
'angen_'
'angemessene_'
'anden_'
'ances_'
'ambi'
'alter_'
'alo'
'aks'
'affordable_'
'adequate_'
'acy_'
'ace_'
'accused_'
'accepting_'
'aca'
'abzulehnen_'
'abs'
'able'
'aa'
'Zwei'
'Zusatz'
'Zugriff_'
'Zivilgesellschaft_'
'Zimmerservice_'
'Zer'
'Zen'
'Ya'
'Wärme'
'Wit'
'Wirksamkeit_'
'Wellness_'
'Welche_'
'Water'
'WM'
'Vision_'
'Viel'
'Ven'
'VE_'
'Ursachen_'
'Unterkunft_'
'Treaties_'
'Traditionen_'
'Thai_'
'TO_'
'Symbol_'
'Sy'
'Sul'
'Studenten_'
'Strukturreformen_'
'Steigerung_'
'Stabilitäts'
'Spielen_'
'Sou'
'Sektoren_'
'Schule_'
'Schuld_'
'Schnell'
'Schiff'
'Schicksal_'
'Schau'
'SS'
'SE_'
'Rä'
'Rot'
'Ret'
'Resolution_'
'Republican_'
'Renten'
'Reg'
'Ras'
'Radio_'
'Portuguese_'
'Port'
'Pol'
'Playa_'
'Planung_'
'Peace_'
'Patri'
'Patent'
'Pat'
'Pal'
'PP'
'Orient'
'Od'
'Ober'
'OS'
'Nu'
'Notes_'
'Nordkorea_'
'Nord_'
'Netzwerk_'
'Netzwerk'
'Nahrungsmittel'
'NCC_'
'Mö'
'Männern_'
'Morocco_'
'Moo'
'Mol'
'Mobil'
'Metall'
'Messe'
'Mein_'
'Medien'
'Medi'
'Mechanismen_'
'Market_'
'Mark_'
'Mari'
'Marc'
'Mani'
'Mallorca_'
'Ly'
'Lounge_'
'Lizenz'
'Let'
'Lernen_'
'Lehre_'
'Lee_'
'Laut_'
'Ladies_'
'LE_'
'König_'
'Kurz'
'Kosten'
'Konto_'
'Kontext_'
'Kohlen'
'Keine_'
'Kauf_'
'Kategorie_'
'Kam'
'Jung'
'Jerusalem_'
'Jahrzehnts_'
'Investment_'
'Ins'
'Industrieländern_'
'Image_'
'Il_'
'IS_'
'Hostels_'
'Hor'
'Holocaust_'
'Heraus'
'Haus'
'Hall_'
'Halb'
'Hal'
'Gua'
'Großbritanniens_'
'Griechenlands_'
'Gott_'
'Generationen_'
'Generalsekretär_'
'Führungs'
'Fur'
'Funds_'
'Frühling_'
'Friendly_'
'Friedman_'
'Freude_'
'Frank_'
'Framework_'
'Formular_'
'Flugzeuge_'
'Flo'
'Fisch'
'Festival_'
'Feld_'
'Fast_'
'Family_'
'Exporte_'
'Existenz_'
'Et'
'Errichtung_'
'Erm'
'Einwanderer_'
'Einstellungen_'
'Einbeziehung_'
'Eigentum_'
'Egyptian_'
'Economy_'
'Ebola_'
'EN'
'Dublin_'
'Drogen_'
'Dreh'
'Dol'
'Disc'
'Description_'
'Denmark_'
'Davos_'
'Darum_'
'DS9_'
'Consumer_'
'Computer'
'Christ_'
'Chairman_'
'Canon_'
'Can'
'Cal'
'CS'
'Bürgerinnen_'
'Börse_'
'Burma_'
'Bug'
'Bro'
'Bord_'
'Blut'
'Bl'
'Bis'
'Bew'
'Betrieb_'
'Beratung_'
'Beobachter_'
'Bene'
'Ben_'
'Bemerkungen_'
'Begleit'
'Bed'
'BU'
'Ausz'
'Ausstattung_'
'Aussch'
'Ausr'
'Ausbruch_'
'Aufnahme'
'Aspekten_'
'Are_'
'Arc'
'Arbeitslosen'
'Arbeitskräfte_'
'Arbeiter_'
'Antworten_'
'Annehmlichkeiten_'
'Anhänger_'
'Angriffe_'
'Ange'
'Anders_'
'Allianz_'
'Acc'
'Absichten_'
'Abschnitt_'
'Absch'
'Ablehnung_'
'Abkommens_'
'Abe'
'?'
'72_'
'2050_'
'19th_'
'1990s_'
'1980er_'
'1956_'
'1950_'
'02_'
'. “_'
'); _'
'' '
'&#_'
'% '
' ?_'
' ; _'
' -'
' ), _'
'… _'
'” '
'‘_'
'у_'
'ре'
'в'
'ε'
'üg'
'überwachen_'
'überraschend_'
'überge'
'ökonomische_'
'öge'
'él'
'ätze_'
'ägen_'
'ão_'
'án_'
'Ö'
'Ärzte_'
'zz'
'zweitens_'
'zurückzuführen_'
'zurück'
'zugänglich_'
'zub'
'zivil'
'zent'
'zb'
'yl_'
'yi'
'xa'
'wer'
'wel'
'weich'
'wachstum_'
'vorzunehmen_'
'vorher'
'voran'
'vollständigen_'
'vit'
'ville_'
'verwi'
'versorgung_'
'versichern_'
'versetzt_'
'verschwinden_'
'verg'
'verfa'
'verein'
'verbot'
'vent'
'veni'
'ved_'
'uu'
'urgently_'
'urge'
'urb'
'uranium_'
'ura'
'unlike_'
'unhe'
'ungss'
'ungsan'
'ungs_'
'unbea'
'unabhängigen_'
'ump'
'umgekehrt_'
'ultimate_'
'uli'
'uge'
'uer_'
'uen_'
'uch_'
'ub_'
'ual'
'twin_'
'tungen_'
'tse'
'treiben_'
'trees_'
'transportation_'
'transformed_'
'transactions_'
'trans'
'tranquil'
'tracks_'
'topics_'
'top'
'tische_'
'tion'
'thw'
'thu'
'ther_'
'texts_'
'teuer_'
'test'
'tern'
'terb'
'tel'
'tei'
'teaching_'
'tabl'
'tab'
'sé'
'sä'
'systematic_'
'sus_'
'surveillance_'
'surprise_'
'surely_'
'supplementary_'
'stunning_'
'studied_'
'strukturelle_'
'strongly_'
'string_'
'strike_'
'strict_'
'strengthened_'
'straf'
'stor'
'sten'
'stan_'
'stan'
'stagnation_'
'stages_'
'stab'
'staaten_'
'sso'
'ssion_'
'spät_'
'sowjetischen_'
'sorgt_'
'solid'
'sna'
'smo'
'sleep_'
'skin_'
'sin_'
'significance_'
'sichtbar_'
'shortage_'
'shock_'
'sexuelle_'
'setzte_'
'seri'
'selben_'
'seemingly_'
'seconds_'
'sebagai_'
'score_'
'schätzen_'
'schwerer_'
'schwere_'
'schl'
'sches_'
'schein'
'schaften_'
'scar'
'sc'
'sb'
'satisfied_'
'sant'
'sam_'
'rze'
'rund'
'ruled_'
'rui'
'rtet_'
'rp'
'row_'
'rose_'
'ros_'
'ros'
'rom'
'rolle_'
'rme'
'rk_'
'ria_'
'ri'
'rhetoric_'
'revenues_'
'retirement_'
'responses_'
'resi'
'reserved_'
'representation_'
'repeatedly_'
'repa'
'remarkable_'
'relief_'
'rel'
'regulators_'
'regelmäßig_'
'recommendation_'
'recognised_'
'rechtliche_'
'recall_'
'realer_'
'read'
'rder'
'ranging_'
'rangi'
'radi'
'quent'
'quelle_'
'quantities_'
'qualitative_'
'q_'
'punkte_'
'psycho'
'promising_'
'proceedings_'
'privacy_'
'prevented_'
'pose_'
'populations_'
'ple'
'play'
'plan'
'pig'
'piel'
'physic'
'phones_'
'philosophy_'
'personenbezogene'
'permit_'
'pe'
'patron'
'pat'
'pas'
'partition_'
'parameters_'
'pa_'
'oß_'
'ows_'
'ow'
'overs'
'outs'
'ote'
'ossen_'
'orm'
'originally_'
'orge_'
'organis'
'openness_'
'openly_'
'oo_'
'oo'
'ome'
'om_'
'ohn'
'oh'
'offenbar_'
'ode'
'obstacles_'
'objects_'
'obi'
'obe'
'nächster_'
'ny_'
'nunmehr_'
'nth'
'nr'
'nowadays_'
'nous_'
'notably_'
'not'
'niedrigen_'
'nha'
'nger'
'neo'
'neighbors_'
'negotiation_'
'negativen_'
'nds_'
'ndel'
'nav'
'narrow_'
'mona'
'modern'
'mn'
'mmer'
'mitten_'
'minimal_'
'minds_'
'mend'
'meister'
'medicine_'
'maritime_'
'manage'
'malaria_'
'makers_'
'machten_'
'mach'
'länder_'
'lz'
'lou'
'lobby_'
'literature_'
'lift'
'lier'
'lid'
'library_'
'leidet_'
'leich'
'legislat'
'lebt_'
'lb'
'lav'
'las'
'lar_'
'künftig_'
'könne_'
'kurz'
'kop'
'kep'
'jährliche_'
'jederzeit_'
'jedenfalls_'
'jar'
'ively_'
'irgend'
'iranischen_'
'investigation_'
'intends_'
'instantly_'
'insist_'
'inl'
'initiated_'
'infolge_'
'info_'
'incredible_'
'incentive_'
'impl'
'ila'
'iger'
'iga'
'ific'
'iere'
'iel'
'iehen_'
'iegen_'
'ide'
'ick'
'ichtig'
'icht'
'iat'
'hör'
'höchst_'
'hyper'
'hur'
'household_'
'hot'
'holen_'
'hohem_'
'hm'
'hire_'
'hier'
'hervorragende_'
'heraus'
'hens'
'heim'
'harmful_'
'harm_'
'hard'
'handel'
'hal_'
'hai'
'gäng'
'gäbe_'
'grundsätzlich_'
'grund'
'granting_'
'gleichermaßen_'
'gis'
'gewählten_'
'gesellschaftliche_'
'gesellschaften_'
'geschäft'
'ges'
'gerechtfertigt_'
'genauer_'
'geltenden_'
'gefährliche_'
'geeignet_'
'führer_'
'fähig'
'frühere_'
'franc'
'formula_'
'forge_'
'focuses_'
'fläche_'
'flying_'
'finish_'
'films_'
'filled_'
'fil'
'fiel_'
'fied_'
'fee_'
'favor'
'fassen_'
'fam'
'fakt'
'fach'
'eze'
'expos'
'exploitation_'
'experiences_'
'ex'
'eure_'
'etic_'
'ethical_'
'erweitern_'
'erreichte_'
'erre'
'erlassen_'
'ergebnisse_'
'erd'
'entre'
'ente_'
'entdecken_'
'ener'
'endet_'
'encouraged_'
'employers_'
'employed_'
'emergence_'
'eliminating_'
'elect'
'einsch'
'einrichtungen_'
'einheitliche_'
'eingestellt_'
'eingerichtete_'
'eingehalten_'
'eingegangen_'
'eig'
'eif'
'ehemalige_'
'effektive_'
'eer'
'ect'
'ecke'
'dungen_'
'dot'
'dor'
'donors_'
'dominant_'
'dite'
'distinction_'
'disabled_'
'directory_'
'dieselbe_'
'dies'
'die'
'dibandingkan_'
'diagnosti'
'deutliche_'
'derartigen_'
'deploy'
'demonstrates_'
'definitely_'
'define_'
'declining_'
'dea'
'cz'
'customs_'
'covering_'
'cos'
'corresponding_'
'cope_'
'convey'
'converted_'
'contextual_'
'cons'
'conce'
'conc'
'comply_'
'compliance_'
'compar'
'communist_'
'comm'
'codecision_'
'clock_'
'claimed_'
'cially_'
'chlag'
'checking_'
'chart'
'chan'
'chafts'
'chaften_'
'cells_'
'cell_'
'calendar_'
'buying_'
'bs'
'brutale'
'broader_'
'brachte_'
'bought_'
'bol'
'bod'
'blieb_'
'blich_'
'black'
'bilde'
'bilateralen_'
'bil'
'bi_'
'bezieht_'
'bewirken_'
'bewegt_'
'bewa'
'betreffenden_'
'bet_'
'beri'
'berechtigt_'
'berba'
'bekämpfung_'
'bekam_'
'beitr'
'beibehalten_'
'behörde_'
'begründet_'
'beglückwünschen_'
'beendet_'
'bedeutende_'
'beantworten_'
'bas'
'banken_'
'bak'
'bai'
'backing_'
'bab'
'avoided_'
'ausschuss_'
'ausgeschlossen_'
'ausgegeben_'
'ausführ'
'ausf'
'aufrecht_'
'aufgeführt_'
'aufgeb'
'auen_'
'atz_'
'atte'
'ato_'
'assi'
'artistic_'
'artificial_'
'arten_'
'arrested_'
'arrest_'
'arkt'
'arian_'
'ari'
'argumentieren_'
'arbitrary_'
'arabische_'
'ant'
'angeh'
'angeb'
'ane_'
'ane'
'anb'
'alen_'
'alarm'
'aktive_'
'aging_'
'advice_'
'ado_'
'ado'
'adapt'
'adalah_'
'abkommen_'
'abh'
'Zypern_'
'Zusammens'
'Zusammen'
'Zugleich_'
'Zimmer'
'Would_'
'Wort'
'Work_'
'Wohl'
'Wiederbelebung_'
'Weltm'
'Welcome_'
'Weg'
'Wechselkurs_'
'Watson_'
'Wall'
'Wald'
'WHO_'
'Vorsch'
'Vis'
'Verw'
'Verteilung_'
'Verteidigungspolitik_'
'Versuche_'
'Vers'
'Verm'
'Verletzung_'
'Van_'
'Urteil_'
'Unterzeichnung_'
'Una'
'Ukrainian_'
'UM'
'True_'
'Town_'
'Tool_'
'Tochter_'
'Text'
'Temple_'
'Tel_'
'Teams_'
'Tausende_'
'Tat'
'Tar'
'Take_'
'Streit'
'Still_'
'Ster'
'Stat'
'Staatsschulden_'
'Spi'
'Sky'
'Sin'
'Sign'
'Siehe_'
'Sicherheitspolitik_'
'Service'
'Senkung_'
'Sektors_'
'Section_'
'Schwer'
'Schwe'
'Schloss_'
'Schie'
'Sai'
'Ruf_'
'Ric'
'Respekt_'
'Reso'
'Reserven_'
'Rela'
'Rechnungs'
'Reaktionen_'
'Reagan_'
'RM'
'Qua'
'Punkten_'
'Procedure_'
'Prob'
'Press_'
'Preisen_'
'Peru_'
'Personal'
'Performance_'
'Para'
'Palm'
'PI'
'PD'
'Ort'
'Original'
'Organization_'
'Opti'
'Olympic_'
'Nuclear_'
'Niederlanden_'
'Nichtraucherzimmer_'
'New'
'Neue_'
'Net_'
'Motor'
'Mot'
'Monopol'
'Mittelmeer'
'Mio_'
'Minutes_'
'Millennium_'
'Meter_'
'Menschenhandel_'
'Med'
'Mauer_'
'Maschinen_'
'Martin'
'Mark'
'Manhattan_'
'Mang'
'Manager_'
'Mail'
'Mad'
'MPEG_'
'MP3_'
'MM'
'MD'
'Ltd_'
'Lohn'
'Logik_'
'Lim'
'Light'
'Life_'
'Lie'
'Libyen_'
'Leitung_'
'Leitlinien_'
'League_'
'Later_'
'Landwirte_'
'Lac'
'Körper'
'Kru'
'Kons'
'Kompromiss'
'Kernel_'
'Kau'
'Kapitalismus_'
'KORE_'
'KO'
'KE'
'Jun'
'Jer'
'Jack'
'Interventionen_'
'Instruments_'
'Inhalte_'
'Ingenieur'
'Info'
'Indem_'
'IP'
'IN'
'IBM_'
'Hum'
'Hinweise_'
'Hin'
'Hillary_'
'Hera'
'Hen'
'Have_'
'Haupta'
'Had'
'Haar'
'HO'
'Gästen_'
'Guide_'
'Grünbuch_'
'Gold'
'Glas'
'Gl'
'Gewinn'
'Gewerkschaften_'
'Germans_'
'Gener'
'Gehminuten_'
'Gar'
'Ganz_'
'Games_'
'Fußball'
'Friedens_'
'Fr'
'Fol'
'Florida_'
'Flash_'
'Firefox_'
'Finanzmärkte_'
'Fin'
'Festlegung_'
'Ferienwohnung_'
'Fat'
'Farben_'
'FT'
'Eu'
'Essen_'
'Erwachsene_'
'Erreichung_'
'Erbe_'
'Entwicklungshilfe_'
'Energien_'
'Empfehlungen_'
'Emp'
'Einsch'
'Eigen'
'Edition_'
'EX'
'ET'
'EG_'
'ED_'
'Durch'
'Dritte_'
'Dort_'
'Doppel'
'Dokumente_'
'Dokument_'
'Deswegen_'
'Def'
'Declaration_'
'Dea'
'DA_'
'Country_'
'Conf'
'Clubs_'
'Client_'
'Civil_'
'Chirac_'
'Chamber_'
'Cari'
'Cambridge_'
'CT'
'CE_'
'CE'
'Brok_'
'Branche_'
'Block'
'Black'
'Beurteilung_'
'Bett'
'Berlusconi_'
'Berg_'
'Bereitstellung_'
'Befürworter_'
'Bearbeitung_'
'Basi'
'Banken'
'Band'
'Baltic_'
'BS'
'BB'
'Ay'
'Ave'
'Außen_'
'Autor_'
'Australien_'
'Ausgangs'
'Ausführung_'
'Aus'
'Aufenthalts'
'Architektur_'
'Arch'
'Anonymous_'
'Anliegen_'
'Amtszeit_'
'Ami'
'Alli'
'Alle'
'Air'
'Add'
'Abteilung_'
'Absatz_'
'Abr'
'Abf'
'Abe_'
'Ab_'
'99_'
'77_'
'62_'
'59_'
'57_'
'56_'
'54_'
'46_'
'35'
'200'
'1986_'
'1967_'
'185'
'184'
'181'
'. „_'
'. - _'
''', _'
'" '
'! '
' ,,_'
' + _'
' "'
'…"..._'
'ө'
'о_'
'ма'
'üm'
'ül'
'üge_'
'überwiegend_'
'überwacht_'
'übertr'
'übernahm_'
'überleben_'
'ökonomischen_'
'öhn'
'éri'
'éc'
'è_'
'äußern_'
'äst'
'ärt'
'änden_'
'ähnlicher_'
'Übrigen_'
'Überzeugung_'
'Überwachungs'
'Übernachtung_'
'Überg'
'Überblick_'
'zügig'
'zuständigen_'
'zes_'
'zentraler_'
'zeiten_'
'yp'
'younger_'
'yan'
'wre'
'wort_'
'widmen_'
'wherever_'
'whereby_'
'weshalb_'
'wert'
'werke_'
'wen_'
'welcomes_'
'welchen_'
'weaker_'
'ward_'
'walt'
'walls_'
'wak'
'wai'
'wahr'
'wachstums'
'vulnerability_'
'vul'
'vorzulegen_'
'vore'
'vol'
'voices_'
'virtual_'
'viewed_'
'vic'
'verw'
'vertrag_'
'versteht_'
'verspricht_'
'verse'
'verschw'
'verr'
'vermutlich_'
'verm'
'verletz'
'verkehrs'
'verkaufen_'
'vergleich'
'verbindet_'
'vel'
'uten_'
'uste'
'usch'
'unterschiedlich_'
'unterg'
'unta'
'unsustainable_'
'unre'
'unl'
'ungeachtet_'
'unentgeltlich_'
'unde'
'unc'
'umgehen_'
'umgeb'
'umge'
'ug'
'uci'
'uche_'
'ua_'
'tö'
'täglichen_'
'tzten_'
'typisch_'
'twi'
'ttle'
'tsch'
'trop'
'tro_'
'trei'
'transitional_'
'trail'
'trafficking_'
'tour'
'tough_'
'ton'
'tom'
'tolerance_'
'tis_'
'tip'
'tigen_'
'tickets_'
'thumbnail_'
'thro'
'theme_'
'tete_'
'tested_'
'territories_'
'terrible_'
'teachers_'
'tate'
'talis'
'tain'
'surroundings_'
'surprising_'
'supporters_'
'superior_'
'sul'
'suited_'
'sufficiently_'
'suff'
'strongest_'
'straight_'
'stored_'
'stimme_'
'stieg_'
'stattfindet_'
'statt'
'stars_'
'starkes_'
'spre'
'specifications_'
'speaker_'
'spar'
'sooner_'
'solide_'
'solches_'
'sive_'
'sis'
'sier'
'sicherstellen_'
'sicher'
'sia'
'shing_'
'sharply_'
'shareholders_'
'sett'
'sens'
'sehe_'
'sec'
'sd'
'scu'
'script_'
'schön_'
'schwer'
'schritt'
'schn'
'schlimmer_'
'schlicht_'
'schlechte_'
'schle'
'sche'
'scene_'
'rth'
'rte'
'rre'
'routes_'
'roll'
'rod'
'rock_'
'rob'
'rmaßen_'
'rm_'
'rly_'
'rli'
'ris_'
'ring'
'rid'
'richer_'
'ric'
'rib'
'revolutionary_'
'retain_'
'resulted_'
'rer'
'requiring_'
'repeat_'
'repair_'
'render'
'reminded_'
'rem'
'relie'
'reine_'
'regulated_'
'refused_'
'reflected_'
'ref'
'reduziert_'
'redi'
'recht'
'realistic_'
'rba'
'rale'
'raises_'
'ragen_'
'question'
'queries_'
'quart'
'pun'
'ps'
'prüf'
'proud_'
'prot'
'promoted_'
'privileged_'
'prinzip_'
'preserve_'
'praktischen_'
'potenzielle_'
'popula'
'pools_'
'pet'
'persönliche_'
'persist'
'perfekt_'
'pec'
'peak_'
'patent'
'passes_'
'pass'
'pak'
'ox'
'overwhelming_'
'ova'
'outs_'
'ous'
'orti'
'orientierten_'
'org'
'ores_'
'optional_'
'optimis'
'ont_'
'omm'
'oin'
'off'
'od'
'ock'
'oc'
'observed_'
'obliged_'
'nutz'
'nswerte'
'nsu'
'nowhere_'
'notion_'
'nist'
'nia_'
'nh'
'ngh'
'nge_'
'nge'
'negotiating_'
'negotiate_'
'ndr'
'ndi'
'nch'
'nal'
'nahmen_'
'nachfrage_'
'müsse_'
'mächtigen_'
'multipl'
'mpo'
'mpf'
'mount_'
'modify_'
'mode'
'mobility_'
'mmer_'
'mmen_'
'mittel'
'mische_'
'milk_'
'mid'
'mente_'
'mengu'
'meistens_'
'mehr'
'meat_'
'meantime_'
'max_'
'mas_'
'mart'
'manifest'
'mangel'
'male_'
'mage'
'lunch_'
'lon'
'logic_'
'listings_'
'linguistic_'
'light'
'lend_'
'leiten_'
'lei_'
'legte_'
'lec'
'law'
'langem_'
'landwirtschaftlichen_'
'lag'
'lacks_'
'kö'
'kten_'
'kostenlose_'
'korrekt_'
'kontrolliert_'
'kontextuellen_'
'kontextuell_'
'konf'
'kol'
'knapp_'
'kn'
'kla'
'kk'
'kes'
'kema'
'kapitalistische'
'jährige_'
'judicial_'
'ive'
'iv'
'ite'
'istische_'
'ister'
'iste'
'isolation_'
'isolated_'
'isch'
'iro_'
'ira_'
'ira'
'ion'
'io'
'investing_'
'invested_'
'introducing_'
'interessen_'
'inter_'
'inten'
'intelligent_'
'installieren_'
'innocent_'
'ining_'
'inie'
'informal_'
'industrielle_'
'indicators_'
'imp'
'illegalen_'
'illegale_'
'ika'
'ieß'
'ient_'
'ient'
'ien'
'iede'
'iden_'
'ideale_'
'ich'
'ible_'
'ias_'
'hört_'
'humanity_'
'hro'
'hre'
'hood_'
'hoo'
'honour_'
'hom'
'hlt_'
'hinzufugen_'
'hinder'
'heutige_'
'hervorragenden_'
'hervorheben_'
'hervorgehoben_'
'herunterladen_'
'hel'
'healthy_'
'hast_'
'handled_'
'hall_'
'habit'
'gültige'
'gun'
'gte_'
'grünen_'
'gratulieren_'
'gran'
'grammatisch_'
'gon'
'globaler_'
'gin'
'geäußert_'
'gez'
'gewinnt_'
'gew'
'gesunde'
'gestartet_'
'gest'
'geregelt_'
'geprägt_'
'genuinely_'
'gent'
'geni'
'generell_'
'gemessen_'
'geholfen_'
'gehabt_'
'gebr'
'geboten_'
'geber_'
'gebe'
'gebaut_'
'geb'
'gather_'
'gam'
'förder'
'fällig_'
'fro'
'freu'
'football_'
'folgende_'
'flash_'
'flag_'
'fl'
'firmly_'
'firm'
'fi'
'fet'
'festen_'
'female_'
'fass'
'farm_'
'falsche_'
'extract'
'expenses_'
'execution_'
'exce'
'ewa'
'evi'
'etzung_'
'etz'
'ett'
'eth'
'eta'
'esse'
'ese_'
'erweisen_'
'erkannt_'
'erie'
'eric'
'erhebliche_'
'erheben_'
'eres_'
'erarbeitet_'
'entw'
'entsteht_'
'entschlossen_'
'enthalt_'
'entgegen_'
'entertainment_'
'entdeckst_'
'enjoyed_'
'engagement_'
'engage_'
'enforcement_'
'endorse'
'empf'
'emerge_'
'ema'
'elli'
'elegante_'
'electric_'
'ekti'
'eis'
'eins_'
'einf'
'eignet_'
'eigentliche_'
'earn_'
'dy'
'dri'
'drag'
'downturn_'
'dos_'
'doors_'
'dominated_'
'displaced_'
'diskutiert_'
'disco'
'dische'
'direkte_'
'direkt'
'director_'
'diper'
'dina'
'dignity_'
'dienst_'
'did'
'dictatorship_'
'deuten_'
'det_'
'desktop_'
'desk_'
'designer_'
'deserve_'
'derzeitige_'
'department_'
'denjenigen_'
'delivery_'
'degrees_'
'def'
'deco'
'deadline_'
'davor_'
'dat'
'cyclical_'
'ct'
'courts_'
'countryside_'
'countless_'
'coordinated_'
'conveniently_'
'convenience_'
'contributing_'
'conta'
'considerations_'
'compl'
'compact_'
'colors_'
'collect_'
'colla'
'codi'
'closing_'
'clarity_'
'cla'
'cit'
'cia_'
'cia'
'cht'
'chs'
'chose_'
'chin'
'chil'
'chairman_'
'cet'
'centrally_'
'causing_'
'cas_'
'cart'
'bul'
'bubble_'
'bru'
'broadly_'
'borrow_'
'boosting_'
'boat_'
'bo_'
'bitter'
'billig'
'bia'
'bez'
'bewaffnete'
'betragen_'
'betra'
'best'
'besonderer_'
'beseitigen_'
'berechnet_'
'beha'
'begrüßt_'
'begleitet_'
'begegnen_'
'bege'
'begannen_'
'bedroh'
'baut_'
'basierte_'
'basically_'
'base'
'baro'
'bags_'
'bagi_'
'az'
'avo'
'avi'
'außer'
'aux_'
'ausl'
'ausger'
'ausgel'
'ausgeführt_'
'aufrechtzuerhalten_'
'aufgegeben_'
'attended_'
'att_'
'ations'
'atic_'
'aro'
'approaches_'
'anzupassen_'
'anw'
'answers_'
'ansehen_'
'ano_'
'angewiesen_'
'angebracht_'
'anda'
'amo'
'ami'
'ambitious_'
'alter'
'alte'
'alongside_'
'allzu_'
'alleg'
'aktuell_'
'akte'
'ahmen_'
'affecting_'
'advis'
'adaptation_'
'activists_'
'acquired_'
'aci'
'accelerate_'
'abstimmen_'
'abst'
'absolut_'
'abschl'
'abr'
'abgelehnt_'
'abgeben_'
'aben_'
'ab'
'Zwangs'
'Zusätzlich_'
'Zimbabwe_'
'Zielen_'
'Xi_'
'Wirtschaftswachstums_'
'Winter'
'Wie'
'Widerspruch_'
'Wert'
'Wei'
'Webseiten_'
'Wea'
'Ware_'
'WC_'
'Vorsitz_'
'Vorgehen_'
'Vil'
'Vet'
'Versuch'
'Vermögen_'
'Verl'
'Ver'
'User_'
'Unters'
'Unternehmer'
'Universitäts'
'Une'
'UB'
'Typ_'
'Typ'
'Tun'
'Tru'
'Thursday_'
'Third_'
'Tests_'
'Terroristen_'
'Ten'
'Tarifa_'
'Tan'
'Tam'
'Tagung_'
'Systemen_'
'Syrian_'
'Stü'
'Structural_'
'Strom'
'Stil'
'Standort_'
'Stamm'
'Stahl'
'Spo'
'Spitzen'
'Spielraum_'
'Sowjetunion_'
'Sound_'
'Sound'
'Sollten_'
'Sol_'
'Sir'
'Should_'
'Shia_'
'Ser'
'Sei'
'Schätzungen_'
'Schwäche_'
'Schweiz_'
'Schwarz'
'Schulb'
'Schu'
'Schrift'
'Schlusselwort_'
'Schlusselphrase_'
'Schlacht'
'Schalt'
'Sav'
'Satz_'
'Sar'
'Salz'
'ST'
'Rü'
'Russ'
'Rum'
'Rules_'
'Rubrik_'
'Rose'
'Ros'
'Romania_'
'Republikaner_'
'Rec'
'Real_'
'Qui'
'Qu'
'Prozess'
'Provinz_'
'Provence_'
'Projekts_'
'Programm'
'Program_'
'Profi'
'Prize_'
'Praktiken_'
'Porto_'
'Pont'
'Politik'
'Poker'
'Phänomen_'
'Pet'
'Patten_'
'Passwort_'
'Pas'
'Parlaments'
'Palma_'
'PARIS_'
'Out_'
'Offen'
'OF_'
'Nova'
'None_'
'Niemand_'
'Netz_'
'Netto'
'Net'
'Nas'
'Nahrungsmittel_'
'NGOs_'
'Mängel_'
'Myanmar_'
'Muster_'
'Monte'
'Mona'
'Moldova_'
'Mitarbeitern_'
'Mir_'
'Mil'
'Migranten_'
'Metro_'
'Meer'
'Massa'
'Marketing_'
'Marina_'
'Marin'
'Marg'
'Mar_'
'Mao_'
'Manchmal_'
'Main'
'Mai'
'Mach'
'MT'
'Löhne_'
'Lö'
'Lou'
'Lobby'
'Listings_'
'Lehren_'
'Legi'
'Laun'
'Lastly_'
'Lager'
'Laeken_'
'Kö'
'Kurs'
'Kreuz'
'Korean_'
'Kli'
'Kie'
'Ket'
'Ker'
'Kampf'
'Kamera_'
'KA'
'Juden_'
'Journalisten_'
'Jos'
'Jews_'
'Jewish_'
'Jackson_'
'Ironi'
'Internal_'
'Institut_'
'Install'
'Innerhalb_'
'Ink'
'Infrastruktur'
'Ic'
'IV_'
'ING_'
'IM'
'Hände_'
'Hof'
'Hinzu'
'Hab'
'Grundsätze_'
'Grundst'
'Gottes_'
'Gor'
'Gleichstellung_'
'Gipfeltreffen_'
'Gewinner_'
'Get_'
'Geo'
'Genau_'
'Gel'
'Geheim'
'Gegend_'
'Gef'
'Gat'
'Gast_'
'Gas'
'GP'
'Freunden_'
'Freizügigkeit_'
'Freizeit'
'Force_'
'Foot'
'Flughäfen_'
'Florence_'
'Fischler_'
'Fire'
'Fernseh'
'Fern'
'Fehl'
'FC_'
'Extra'
'Eth'
'Eta'
'Este'
'Erste'
'Erl'
'Erkenntnisse_'
'Erfolge_'
'Erf'
'Erdoğan_'
'Erd'
'Emi'
'Einsp'
'Einschränkung_'
'Einnahmen_'
'Eing'
'Einfluss'
'Einb'
'Eigenschaften_'
'Ec'
'Dü'
'Dynamik_'
'Dur'
'Dun'
'Dritten_'
'Dorf_'
'Director_'
'Die'
'Det'
'Denk'
'Den'
'Defizite_'
'Defence_'
'Deep_'
'Datenschutz'
'Cur'
'Could_'
'Content_'
'Church_'
'Christmas_'
'Chef_'
'Chal'
'Ch'
'Celsius_'
'Casino_'
'Café_'
'CR'
'Bucht_'
'Br'
'Boy'
'Boo'
'Blo'
'Bevölkerungs'
'Betten_'
'Beteiligten_'
'Beruf'
'Berichten_'
'Benutzer'
'Belgien_'
'Beg'
'Bedürfnissen_'
'Beamten_'
'Beachtung_'
'Bay'
'Base_'
'Bara'
'Bahn'
'Badezimmer_'
'Back_'
'Ausf'
'Ausb'
'Aufforderung_'
'Argumente_'
'Area_'
'Arabs_'
'Arabien_'
'Ap'
'Anträge_'
'Anti_'
'Alternativen_'
'Alta'
'Allah_'
'Album_'
'Afghan'
'Adv'
'Abst'
'Abgesehen_'
'AT_'
'AS_'
'AM_'
'96_'
'900_'
'90'
'82_'
'79'
'73'
'67_'
'61_'
'38'
'350_'
'32'
'236'
'2030_'
'2020_'
'2016_'
'201'
'1981_'
'1978_'
'197'
'120_'
'04'
'001'
',/_'
', ‘_'
'+ _'
'( _'
'%'
'"'
' ("_'
'”) _'
'’'
'–_'
'я_'
'ы_'
'то'
'он'
'нд'
'на'
'к_'
'гі'
'ар'
'č'
'üssen_'
'ühren_'
'ück'
'üchter'
'üblichen_'
'überz'
'übers'
'österreichischen_'
'ösen_'
'öffentlicher_'
'í_'
'ë'
'ê'
'év'
'äten_'
'ähr'
'äh'
'äge_'
'ßt_'
'Ökonomien_'
'Öko'
'Äußerungen_'
' –, _'
'}}) _'
'| _'
'{_'
'zykl'
'zwangsläufig_'
'zuw'
'zulassen_'
'zukünftigen_'
'zugute_'
'zn'
'zis'
'zio'
'zig_'
'ziert_'
'zie'
'zentral_'
'zen'
'yu'
'ysteme_'
'yer_'
'yea_'
'yard_'
'xt'
'würdig_'
'worry_'
'witness_'
'wise_'
'willingness_'
'willige'
'widerspr'
'wichtiges_'
'westlich_'
'west'
'weite_'
'weise'
'wea'
'wasser'
'wandel'
'wahr_'
'vr'
'vorn'
'vorange'
'vollst'
'viv'
'vez_'
'vessels_'
'verwei'
'verwandeln_'
'vertraut_'
'verteilt_'
'versetzen_'
'verschiedener_'
'versa'
'vers'
'vermieden_'
'vergeben_'
'verge'
'verbreiteten_'
'verbl'
'verbinden_'
'verb'
'verabschiedet_'
'verabschieden_'
'utu'
'usel'
'urgency_'
'updated_'
'untersuchen_'
'unterbreitet_'
'unmittelbaren_'
'unknown_'
'united_'
'ungsbe'
'undi'
'understandable_'
'uncertain_'
'unange'
'unabhängige_'
'umsetzen_'
'ula_'
'ui'
'uh_'
'uff'
'uc'
'tätigkeit_'
'tzung_'
'tzt_'
'tube_'
'très_'
'trugen_'
'trick'
'treu'
'travellers_'
'transit'
'transformation_'
'transferred_'
'trained_'
'tos'
'tn'
'tiv'
'tim'
'tiefe_'
'thumb_'
'thousand_'
'therapy_'
'theoretical_'
'theater_'
'teuer'
'terhadap_'
'tent'
'tensions_'
'tene'
'tendency_'
'tem_'
'tely_'
'tells_'
'telah_'
'teiln'
'techniques_'
'tec'
'tatsächlichen_'
'tation_'
'tat_'
'tari'
'tang'
'tande'
'tai'
'tac'
'südlichen_'
'szen'
'symbol'
'sy_'
'switch_'
'sv'
'surprised_'
'surf'
'suppress'
'supplement'
'supervision_'
'suicide_'
'succeeded_'
'substitute'
'subsequently_'
'subs'
'stützen_'
'stunde_'
'stun'
'stuff_'
'strukturen_'
'stoppen_'
'stopp'
'stischen_'
'stif'
'stehenden_'
'steam_'
'stammt_'
'stake_'
'stad'
'stabile_'
'ssu'
'sste'
'ssp'
'ssige'
'spl'
'spin'
'spielte_'
'spiel'
'speziell_'
'spectacular_'
'sozial'
'sow'
'solid_'
'soldiers_'
'smart_'
'slopes_'
'sko'
'sitzen_'
'sitz'
'siert_'
'shut_'
'shot_'
'shore_'
'shel'
'sexual_'
'settings_'
'selten_'
'seits_'
'seg'
'schwieriger_'
'schwach_'
'schwa'
'schr'
'schnellen_'
'schme'
'schla'
'schien_'
'scheinlich'
'schau'
'sba'
'sat_'
'sat'
'salt_'
'sai'
'saf'
'rulers_'
'ruins_'
'rts_'
'rtig'
'rop'
'roots_'
'ron_'
'romantic_'
'rol'
'robot'
'robe'
'rne'
'rn'
'river_'
'rist'
'riffen_'
'rif'
'rge'
'reveal_'
'reti'
'respektieren_'
'reproduction_'
'reprodu'
'representing_'
'rep'
'remo'
'reliability_'
'rej'
'reise_'
'rei_'
'register_'
'regelung_'
'reform'
'refers_'
'referring_'
'reductions_'
'recover_'
'reactions_'
'react_'
'rch'
'rau'
'rational_'
'rated_'
'rang'
'rage_'
'ract'
'racism_'
'racing_'
'rable_'
'quest_'
'quellen_'
'qualities_'
'qu'
'pure_'
'pun_'
'publicly_'
'pti'
'prozess_'
'proximity_'
'protectionism_'
'propaganda_'
'projekte_'
'professor_'
'produzieren_'
'produkte_'
'printed_'
'predict'
'precious_'
'pou'
'poten'
'port'
'populistische'
'polls_'
'politician_'
'polic'
'poet'
'po_'
'pm_'
'plötzlich_'
'pipeline_'
'phe'
'pflicht'
'pes_'
'perception_'
'pel_'
'pazi'
'patio_'
'patient_'
'passing_'
'pane'
'pala'
'painful_'
'pain_'
'oy'
'overt'
'outl'
'otic_'
'oss_'
'ort'
'ors'
'orientier'
'oriented_'
'organisiert_'
'organ'
'orang_'
'ops_'
'operates_'
'operated_'
'ood_'
'onal'
'omen'
'om'
'olog'
'ole_'
'oke'
'officially_'
'officers_'
'offensichtliche'
'odie'
'ochen_'
'ny'
'nungs'
'nten_'
'nou'
'noticed_'
'norm_'
'nor'
'nomin'
'nobody_'
'nne_'
'nm'
'ney_'
'newspaper_'
'neuro'
'nem'
'neighbourhood_'
'negotiated_'
'neck'
'ndige'
'nai'
'nah_'
'nage'
'nab'
'm²_'
'mun'
'modest_'
'mmt_'
'mmi'
'mittleren_'
'mitglieder_'
'mistakes_'
'miss'
'mischen_'
'militant'
'meta'
'meri'
'menye'
'meng'
'memper'
'medizinischen_'
'medieval_'
'mb'
'maybe_'
'marke'
'mano'
'manchen_'
'mall'
'mak'
'magic_'
'magazine_'
'm2_'
'lé'
'länd'
'lungen_'
'luc'
'lter_'
'lowest_'
'low'
'loses_'
'los'
'loo'
'loi'
'logische'
'logis'
'lla_'
'live'
'lit'
'line'
'life'
'liegenden_'
'liefern_'
'liederung_'
'lieb'
'lie'
'lich'
'lic'
'liability_'
'letter_'
'lder_'
'lays_'
'lawyers_'
'laufenden_'
'lak'
'lage'
'kürze'
'kümmern_'
'kä'
'kurzfristigen_'
'ktions'
'ksi'
'kritisiert_'
'konzipiert_'
'kommuni'
'kommen'
'kollektive'
'kno'
'klar'
'kins_'
'kilometers_'
'kesehatan_'
'kese'
'kem'
'kebijakan_'
'justify_'
'justification_'
'jo_'
'jetzigen_'
'isti'
'irischen_'
'ione'
'investigate_'
'investiert_'
'instructions_'
'inner'
'inhabitants_'
'infra'
'influenced_'
'inflows_'
'infi'
'infected_'
'inen_'
'industriellen_'
'indu'
'indoor_'
'individuelle_'
'incidents_'
'imi'
'ilung_'
'illusion'
'ilia'
'ik'
'ignorieren_'
'iesen_'
'ider'
'ically_'
'händler_'
'hy_'
'hundert_'
'hu'
'hrte'
'hone'
'holds_'
'hochwertige_'
'hle'
'hinaus'
'hill_'
'hilfreich_'
'hilfe_'
'hierbei_'
'hide_'
'hidden_'
'hes'
'herausge'
'hd'
'harmonisation_'
'harg'
'hani'
'handl'
'hair_'
'hafte_'
'hab'
'günstig_'
'gru'
'grenzt_'
'greifen_'
'grand_'
'grade_'
'golden_'
'gnet'
'glieder'
'gle'
'gkeit_'
'gingen_'
'gha'
'gewonnen_'
'gewiss_'
'getragen_'
'gespa'
'geräumige'
'gerei'
'gepr'
'gep'
'genes_'
'gemeinschaftlichen_'
'geh'
'gefe'
'geeigneten_'
'gedr'
'gebildet_'
'gebieten_'
'gant'
'gaining_'
'fy_'
'frieden'
'freundliches_'
'frequency_'
'frame_'
'foundations_'
'formuliert_'
'formi'
'form'
'forever_'
'forests_'
'fores'
'fordere_'
'fon'
'folder_'
'focusing_'
'flexib'
'findings_'
'finanz'
'finances_'
'fie'
'fft_'
'ffs_'
'festival_'
'festgelegten_'
'feelings_'
'featuring_'
'farms_'
'fait'
'fails_'
'factory_'
'fab'
'eß'
'ez'
'expressing_'
'exporte'
'experiencing_'
'expanded_'
'existed_'
'exi'
'exhibit'
'excluded_'
'exceeds_'
'examine_'
'eve'
'evaluate_'
'euros_'
'eu_'
'ethnischen_'
'esh'
'erzielte_'
'erneuer'
'erhoben_'
'erheblichen_'
'ergibt_'
'erfreut_'
'erforderliche_'
'erfolgte_'
'eren'
'ereign'
'erbe'
'episode_'
'environmentally_'
'entscheid'
'entl'
'entering_'
'entdeckt_'
'ensures_'
'ense'
'enm'
'engi'
'enforced_'
'energi_'
'enemies_'
'ends_'
'endo'
'empfängt_'
'emit'
'emba'
'eman'
'elf'
'elektronischen_'
'electrical_'
'ekt'
'ekonomi_'
'eisen_'
'eintreten_'
'einstellen_'
'einkommen_'
'einh'
'eingeb'
'einbezogen_'
'ehrt_'
'ehm'
'effizient_'
'eco'
'earnings_'
'dus'
'dst'
'dropped_'
'dream'
'dramatically_'
'dou'
'domain_'
'dnung_'
'dle_'
'disorder_'
'dine'
'dil'
'dig_'
'dienste_'
'dge'
'devoted_'
'det'
'desp'
'describe_'
'dern_'
'dera'
'dens'
'denk'
'demo'
'demanded_'
'dema'
'delle_'
'dell_'
'debating_'
'debated_'
'dau'
'dating_'
'cut'
'cus'
'cur'
'credit'
'crat'
'corrupt_'
'correctly_'
'conversation_'
'conv'
'considers_'
'connect_'
'condemn'
'comput'
'comprises_'
'complement'
'como_'
'comme'
'collaborat'
'cm_'
'cks_'
'circle_'
'chts'
'chsel'
'chie'
'chemicals_'
'chel'
'chei'
'chancen_'
'ces'
'certainty_'
'ced_'
'cease'
'busi'
'build'
'bte_'
'bs_'
'brit'
'brid'
'bri'
'bot'
'blow'
'blog_'
'blank'
'blame_'
'bit'
'binding_'
'bili'
'big'
'bewer'
'beweist_'
'beweg'
'bewahren_'
'betre'
'bestimmter_'
'beste'
'beschreiben_'
'beruh'
'bert_'
'berichtet_'
'bereitgestellt_'
'bereit'
'benutzer'
'bele'
'bel_'
'befreien_'
'bedroht_'
'bedingungen_'
'bedauer'
'bedanken_'
'beda'
'beantwortet_'
'bath'
'bank'
'bail'
'bahn_'
'awarded_'
'awa_'
'avec_'
'automatic_'
'authors_'
'authentic'
'ausschusses_'
'aussch'
'ausreichen_'
'auslösen_'
'ausführliche'
'ause'
'aufst'
'aufrechterhalten_'
'auch'
'attraction_'
'attend_'
'attempted_'
'attached_'
'ater_'
'ase_'
'ars_'
'arrive_'
'arge'
'arg'
'archive_'
'appointment_'
'apo'
'anzugehen_'
'anzeigen_'
'antworten_'
'anstreben_'
'anst'
'anscheinend_'
'ani'
'angewandt_'
'angekündigt_'
'angehen_'
'angeblich_'
'anfangen_'
'amtierende'
'ament_'
'alis'
'alg'
'akt'
'aki'
'agi'
'aggressive_'
'aggregate_'
'aftermath_'
'affi'
'affen_'
'advocate_'
'advised_'
'adult_'
'adequately_'
'addresses_'
'adding_'
'acknowledged_'
'accord'
'accidents_'
'acc'
'academic_'
'abuses_'
'abl'
'abgest'
'abg'
'abend'
'abandoned_'
']], [[_'
'] '
'Zwischen'
'Zuw'
'Zuständigkeiten_'
'Zivil'
'Zerstörung_'
'Youth_'
'You'
'XP_'
'Wäscheservice_'
'Wä'
'Wu'
'Wirtschaftss'
'Wireless_'
'Wide'
'Wichtigkeit_'
'Whi'
'Wettbewerbs_'
'Westens_'
'Werkzeuge_'
'Werke_'
'Werbung_'
'Wende'
'Weil_'
'Websites_'
'Wander'
'WAR'
'Vorschlags_'
'Vorr'
'Vorherrschaft_'
'Vielmehr_'
'Vic'
'Verzögerungen_'
'Versprechen_'
'Versammlung_'
'Vermi'
'Verla'
'Verfügbarkeit_'
'Verfahrens'
'Veranstaltungen_'
'Vater_'
'VER'
'Urlaubs'
'Unt'
'Uns_'
'Ungarn_'
'Unbe'
'Umge'
'Tyr'
'Tunisia_'
'Transit'
'Trag'
'Top'
'Tit'
'Tisch_'
'Throughout_'
'Theorie_'
'Terror_'
'Temperaturen_'
'Telefon_'
'Taxi'
'Taten_'
'Tas'
'TE_'
'TER'
'Sum'
'Suites_'
'Subs'
'Strand'
'Str'
'Stor'
'Stoffe_'
'Stockholm_'
'Stau'
'Stand'
'Staatss'
'Spring_'
'Spri'
'Sports_'
'Speci'
'Sor'
'Sonne_'
'Solche_'
'Sof'
'Smoking_'
'Sm'
'Sk'
'Situated_'
'Sit'
'Simbabwe_'
'Silv'
'Sil'
'Siemens_'
'Sieb'
'Shuttle_'
'Shop_'
'Shar'
'Sevilla_'
'Seri'
'Senate_'
'Sec'
'Schü'
'Schr'
'Schon_'
'Schlaf'
'Scha'
'Sc'
'Sam'
'Salo'
'STO'
'Run'
'Rub'
'Ross'
'Roosevelt_'
'Ronald_'
'Rit'
'Richard_'
'Rica_'
'Rev'
'Republicans_'
'Rena'
'Rem'
'Reich_'
'Regional'
'Rede'
'Rechtsstaatlichkeit_'
'Ratifizierung_'
'Rand_'
'Rand'
'Radio'
'RU'
'RER_'
'Quadra'
'Protocol_'
'Protein'
'Projekten_'
'Professor_'
'Produzenten_'
'Primär'
'Presse_'
'Prague_'
'Power_'
'Power'
'Positionen_'
'Por'
'Plus_'
'Planeten_'
'Piazza_'
'Pflicht_'
'Pf'
'Pel'
'Peking_'
'Part'
'Paradox'
'Panorama'
'PM'
'PC'
'Ozean'
'Over'
'Operation_'
'Official_'
'Obs'
'Nutz'
'Nummer_'
'Nor'
'Nielson_'
'Niederlage_'
'Nichtraucherzonen_'
'Neus'
'Nenn'
'Nehmen_'
'Natura_'
'NS'
'NP'
'NG'
'NF'
'Mä'
'Mountain'
'Mou'
'Morgan_'
'Mor'
'Monitor'
'Mis'
'Minister'
'Mini_'
'Migration_'
'Michel_'
'Michel'
'Meinungs'
'Mei'
'McC'
'Mart'
'Manu'
'Mana'
'Lärm'
'Log'
'Lis'
'Link_'
'Les_'
'Leicht'
'Legal_'
'Lam'
'Lag'
'LS'
'Kritiker_'
'Kriminalität_'
'Kontrollen_'
'Kontakte_'
'Kompetenzen_'
'Kollegin_'
'Kh'
'Kenntnisse_'
'Kein_'
'Karriere_'
'Kapazitäten_'
'Kai'
'Kad'
'Jud'
'Jen'
'Jahr'
'JA'
'Isa'
'Irr'
'Internet'
'Integrität_'
'Industrieländer_'
'Indiens_'
'Inc_'
'Imp'
'Imm'
'Ideal'
'Id'
'IE'
'Hour_'
'Hollande_'
'Holiday_'
'Hol'
'Hit'
'Herzlich'
'Hass'
'Hard'
'Handlungen_'
'Haft'
'HD_'
'HD'
'Governance_'
'Gir'
'Gibt_'
'Gew'
'Gestatten_'
'Gestaltung_'
'Geschäft_'
'Ges'
'Gerichten_'
'Gene'
'Gebrauch_'
'Gebi'
'Gaz'
'Garantie_'
'GN'
'GM'
'G8_'
'Förder'
'Föderation_'
'Fuß'
'Funktions'
'Fro'
'Fri'
'Freedom_'
'Fraktionen_'
'Fou'
'Food_'
'Fokus_'
'Flüchtlings'
'Fluss_'
'Flugzeug'
'Flor'
'Fisch_'
'Finanzsystem_'
'Finance_'
'Ferienwohnungen_'
'Ferien'
'Fas'
'Fang'
'Fallout_'
'Fall'
'Fair'
'Fa'
'FS'
'Excellent_'
'Everything_'
'Europol_'
'Etwa'
'Ess'
'Erinnerung_'
'Ergebnissen_'
'Ens'
'Engine_'
'Emissions'
'Eingabe'
'Eg'
'Effektivität_'
'EWG_'
'EU'
'ER_'
'EP_'
'EIB_'
'Dé'
'Durchsetzung_'
'Dru'
'Dos'
'Dom'
'District_'
'Disp'
'Deutsch_'
'Dec'
'Debatten_'
'Dauer_'
'Daniel_'
'Damals_'
'Dach'
'DPJ_'
'DL'
'DD'
'Culture_'
'Cre'
'Coo'
'Conce'
'Commissioners_'
'Come_'
'Code'
'Climate_'
'Chávez_'
'Churchill_'
'Chr'
'Children_'
'Chechnya_'
'Chancengleichheit_'
'Castle_'
'Cannes_'
'Cand'
'Camp'
'Cai'
'CU'
'CM'
'Butt'
'Brotherhood_'
'Bot'
'Bolkestein_'
'Bog'
'Bibliothek_'
'Bezirk'
'Bewohner_'
'Bestände_'
'Besonders_'
'Berufs'
'Bele'
'Begr'
'Bef'
'Bauern_'
'Barón_'
'Band_'
'Ban_'
'Bai'
'Baby'
'Avenue_'
'Aussichten_'
'Aussagen_'
'Aussage_'
'Ausnahme'
'Ausgangspunkt_'
'Ausflüge_'
'Aufzug_'
'Assembly_'
'Arte'
'Architekt'
'Aqua'
'Anwe'
'Ansehen_'
'Annan_'
'Ann'
'Ande'
'Anbindung_'
'Amts'
'Alpen_'
'Alg'
'Alex'
'Ah'
'Agrarpolitik_'
'Af'
'Act'
'Achtung_'
'Abu_'
'Abfall'
'Abendessen_'
'Abd'
'AL_'
'AC_'
'= _'
'93_'
'88_'
'86_'
'76_'
'71_'
'66_'
'53_'
'53'
'51'
'33'
'29'
'1st_'
'1990er_'
'1980s_'
'1979_'
'1971_'
'17'
'- (_'
'+'
'))._'
'%), _'
'", "_'
' «_'
' {{_'
' - '
' ,_'
' &#_'
'“-_'
'– '
'א'
'і_'
'ч'
'уы'
'ты'
'т_'
'ру'
'ол'
'м_'
'г'
'ал'
'ай'
'ł'
'ünstig'
'übrigens_'
'überzeugend'
'überwältigende'
'überschreiten_'
'überf'
'ér'
'äus'
'äumen_'
'äuft_'
'ässer'
'ärk'
'änk'
'änger'
'än'
'án'
'Überw'
'Änderungsanträgen_'
'Änderungs'
'Ähnlich'
'· _'
'zweifel'
'zwan'
'zuzu'
'zustande_'
'zust'
'zusch'
'zuge'
'zon_'
'zle'
'zit'
'ziplin'
'zinsen_'
'ziel_'
'zhou_'
'zeitge'
'yl'
'yen_'
'yd'
'yb'
'xon'
'xe_'
'würdigen_'
'wünschenswert_'
'worthy_'
'wood'
'wohl'
'wohin_'
'wished_'
'wirkungen_'
'wirklichen_'
'widerspiegelt_'
'wid'
'wich'
'wettbewerbsfähige'
'wes'
'werken_'
'weißen_'
'weithin_'
'wede'
'weakened_'
'weaken_'
'we'
'water'
'wander'
'wahl_'
'waffen_'
'vors'
'vornehmen_'
'voneinander_'
'vität_'
'violations_'
'vin_'
'villa_'
'view'
'videos_'
'verwiesen_'
'verwaltung_'
'vertrag'
'vertr'
'verteilung_'
'verstärkte_'
'verst'
'versprechen_'
'verschieden'
'verlie'
'verkehrs_'
'veri'
'verhältnis_'
'vereinbar'
'verdienen_'
'val_'
'utter'
'ute'
'ut'
'usi'
'usage_'
'usa'
'urf_'
'urf'
'upl'
'upe'
'unw'
'unusual_'
'untersucht_'
'unterstützte_'
'unterscheiden_'
'unse'
'unprecedented_'
'unnecessary_'
'unmittelbare_'
'unm'
'unilateral_'
'ungsre'
'ungsge'
'underw'
'unders'
'underp'
'unden'
'unab'
'umfassen_'
'umfangreichen_'
'ukan_'
'uj'
'uin'
'ugi'
'ufs'
'uchen_'
'töten_'
'tänd'
'typische_'
'typen_'
'turi'
'tte'
'tsche'
'tschaft'
'träger_'
'triggered_'
'treaties_'
'traße_'
'traum'
'trap_'
'transform_'
'transaction_'
'traditions_'
'tot_'
'tors_'
'tore'
'tm'
'timing_'
'tik_'
'tigkeit'
'tiefen_'
'tial'
'thy_'
'thir'
'thermal_'
'teure'
'ters_'
'territorial_'
'terp'
'tema'
'technik_'
'teach_'
'tausende_'
'tausend_'
'taste'
'symptom'
'sustain_'
'suspension_'
'surprisingly_'
'sung_'
'summ'
'suggestions_'
'sudah_'
'stä'
'struktur_'
'strom_'
'strictly_'
'stressed_'
'strategi'
'stores_'
'stolz_'
'stimulate_'
'steuern_'
'stet_'
'stel'
'steigt_'
'steigende_'
'steckt_'
'starten_'
'staatlicher_'
'ssen'
'spur_'
'spiel_'
'sper'
'spekt'
'speeches_'
'specialities_'
'specialis'
'spe'
'sounds_'
'soul_'
'sophisticated_'
'songs_'
'solved_'
'sogenannten_'
'smit'
'sle'
'sixt'
'situ'
'sinnvolle'
'silence_'
'sic'
'shr'
'showing_'
'sher'
'shar'
'sgr'
'sge'
'settlements_'
'servi'
'servers_'
'separate'
'sep'
'sending_'
'semi'
'sel_'
'sektors_'
'sed'
'schönsten_'
'schwächen_'
'schwierig'
'schwank'
'scher'
'schafts'
'schafft_'
'saubere'
'sarge'
'sangat_'
'same'
'sah_'
'rän'
'ry'
'rweise_'
'rungen_'
'ruh'
'rst'
'rounds_'
'rot_'
'roof_'
'ront'
'ron'
'rle'
'rks'
'rke'
'rium_'
'riot'
'riff'
'rica'
'rian_'
'rh'
'revisi'
'reverse_'
'rever'
'revealed_'
'reten_'
'restoration_'
'resign'
'reserv'
'repression_'
'renewed_'
'removing_'
'reme'
'reisen_'
'reinforce_'
'reinforce'
'regulate_'
'reduces_'
'rect'
'recover'
'recipe_'
'realise_'
'reagiert_'
'readily_'
'rdin'
'rce'
'rbe'
'ratify_'
'ratifiziert_'
'ratification_'
'ras'
'ran'
'ral'
'rah'
'raft_'
'raci'
'rab'
'quil'
'quer'
'pursuit_'
'purchases_'
'purchased_'
'punkt'
'pue'
'ption_'
'province_'
'provider_'
'proportion_'
'prophe'
'properties_'
'proliferation_'
'programming_'
'programm'
'profound_'
'profitiert_'
'proc'
'prisoners_'
'pris'
'prin'
'pride_'
'preventive_'
'presentation_'
'pres'
'preparing_'
'prejudice_'
'pping_'
'pper_'
'possesse'
'posed_'
'poorer_'
'polnischen_'
'politischem_'
'polar_'
'plin'
'plat'
'planen_'
'pilot_'
'pill'
'pharmaceutical_'
'pes'
'perlu_'
'periphery_'
'pene'
'pende'
'penalty_'
'pect'
'pati'
'paths_'
'pate'
'past'
'partic'
'parte'
'parl'
'papers_'
'pani'
'pakete_'
'pac'
'owner_'
'overview_'
'otis'
'oste'
'organiz'
'ordnungsgemäß_'
'order'
'ord'
'opti'
'opponent_'
'opens_'
'ook_'
'onne'
'ong'
'oned_'
'ologie_'
'olo'
'olle'
'olen_'
'oldest_'
'ois'
'oi_'
'oftmals_'
'oes_'
'obli'
'objektiv'
'nötigen_'
'nw'
'nutrition_'
'ntra'
'nto'
'nsa'
'novel'
'normally_'
'nommen_'
'nob'
'nna_'
'niu'
'nieder'
'ngel'
'new'
'neun_'
'netz_'
'nett'
'ners_'
'nern_'
'neo_'
'nehm'
'ndbar'
'nci'
'nau'
'native_'
'nahezu_'
'nad'
'nachzu'
'multimedia_'
'mul'
'movies_'
'movie_'
'motiv'
'mot'
'mon'
'modernization_'
'mod'
'mmel'
'mme_'
'mk'
'mittlere'
'mist'
'missions_'
'missile_'
'missbrauch'
'miss_'
'mirror'
'ming'
'minded_'
'militärischer_'
'mie'
'mic'
'merupakan_'
'merit'
'menu'
'menta'
'menjadi_'
'mengen'
'meme'
'memba'
'mem'
'mehrs'
'measurement_'
'md'
'mble_'
'may'
'massage_'
'mans'
'mailing_'
'macro_'
'längere'
'läge_'
'lux'
'lui'
'lov'
'losigkeit_'
'lon_'
'logo_'
'log'
'lob'
'llo'
'llig'
'lip'
'ling'
'like'
'lighting_'
'liefert_'
'licht'
'lichkeiten_'
'license_'
'lera'
'lengthy_'
'legitim'
'legacy_'
'lect'
'lbe'
'labelling_'
'käme_'
'kurzfristige_'
'kurs_'
'ktur_'
'ktionen_'
'kritisieren_'
'kritische_'
'kredit'
'kr'
'kost'
'kontrollen_'
'kontr'
'konsum'
'konferenz_'
'komplizierte'
'komplexe_'
'komfortable_'
'km'
'klima'
'klassischen_'
'kit_'
'kirche_'
'kette_'
'kenaikan_'
'kek'
'keinem_'
'kehren_'
'kebe'
'kay'
'kab'
'juga_'
'judgment_'
'ject'
'japanische_'
'jah'
'izing_'
'ix_'
'ival'
'itu_'
'ition_'
'ith'
'istic_'
'ist'
'iso'
'isierte'
'isiert_'
'isieren_'
'ironi'
'irgendeine'
'investitionen_'
'inventor'
'intervene_'
'internationally_'
'internationales_'
'intern'
'interessanten_'
'interessante_'
'integrity_'
'integrati'
'integrate_'
'insure'
'inspection_'
'innenpolitische'
'inga'
'individuellen_'
'inder'
'incorporated_'
'incomes_'
'inadequate_'
'inad'
'imposing_'
'impos'
'importi'
'imported_'
'implied_'
'impa'
'ima'
'ilig'
'ilde'
'iki'
'ignoriert_'
'igh'
'if'
'iew'
'iete'
'ido_'
'ideologische'
'ichtungs'
'iche_'
'ices_'
'ic'
'hängen_'
'hunger_'
'hospitality_'
'holes_'
'hob'
'hnen'
'hinzugefügt_'
'hinter'
'hinnehmen_'
'hind'
'hielten_'
'heu'
'hervorge'
'heran'
'heil'
'heat_'
'headquarters_'
'head'
'hazardous_'
'hart_'
'harmoni'
'handful_'
'halben_'
'günstige_'
'gy'
'gui'
'gues'
'guard_'
'gt'
'größter_'
'größtenteils_'
'groß'
'grosse_'
'grenzüberschreitende'
'grenzen_'
'grau'
'gramm'
'gradual_'
'grab'
'gr'
'governmental_'
'gos'
'gna'
'globales_'
'git'
'girls_'
'gier'
'gia'
'gi_'
'gh_'
'ggi'
'gewünschten_'
'gewo'
'gewidmet_'
'gewerb'
'gewachsen_'
'get'
'gestr'
'gestaltet_'
'gespeichert_'
'gesetz'
'gesellschaftlichen_'
'gese'
'geschw'
'geschr'
'geschafft_'
'gerü'
'gerät_'
'geringer_'
'geniessen_'
'gemeinsamer_'
'geme'
'gelo'
'gelingen_'
'geli'
'gelegenen_'
'gelassen_'
'gegangen_'
'gefährlichen_'
'gefangen_'
'gee'
'gebiet_'
'gation_'
'fünf'
'fäll'
'fying_'
'fut'
'funded_'
'fueled_'
'früh_'
'friedliche_'
'freilich_'
'freige'
'freedoms_'
'fraud_'
'frau'
'fra'
'fought_'
'fortgesetzt_'
'format'
'foreigners_'
'fond'
'flie'
'flags_'
'fix_'
'fits_'
'finished_'
'finanzieller_'
'fin_'
'film'
'fia'
'festzulegen_'
'favourite_'
'fast'
'fanden_'
'fahrt'
'ezi'
'extremen_'
'exposed_'
'explicitly_'
'explained_'
'expertise_'
'exceptions_'
'everybody_'
'europ'
'ett_'
'esu'
'estr'
'este_'
'essa'
'esp'
'erzeugen_'
'erwähnen_'
'erwerben_'
'ers'
'errors_'
'ernsthafte_'
'ernsthaft_'
'erleichtern_'
'erklärung_'
'erin'
'erhältlich_'
'ergänzen_'
'ere'
'erba'
'erarbeiten_'
'equ'
'entscheidet_'
'entity_'
'entgegen'
'entfernen_'
'ente'
'ensi'
'enorme'
'enl'
'enjoys_'
'ening_'
'enic'
'enha'
'engen_'
'enge'
'enda'
'ences_'
'empfehlen_'
'emen_'
'embark'
'ema_'
'elf_'
'eld_'
'einzusch'
'einziges_'
'einzig_'
'einst'
'einladende'
'eingesch'
'eil'
'eigentlichen_'
'eht_'
'eho'
'egung_'
'ega'
'effektiven_'
'ees_'
'echt'
'ebr'
'dynamische'
'durchzusetzen_'
'durchschnittliche_'
'durchs'
'dte'
'dru'
'drives_'
'drittens_'
'drinking_'
'dress'
'drawing_'
'draw'
'dr'
'downtown_'
'doppelt_'
'donor_'
'dokument'
'dl'
'districts_'
'discovery_'
'disasters_'
'disappear'
'dir'
'digitalen_'
'differ'
'deute'
'deut'
'desirable_'
'desc'
'desa'
'derjenigen_'
'depart'
'deny_'
'dent'
'denkt_'
'deni'
'demonstrations_'
'demonstration_'
'demnächst_'
'deli'
'dein'
'deg'
'defining_'
'defi'
'dece'
'day'
'dauerhaft_'
'das'
'dad_'
'creditors_'
'craft'
'covers_'
'courage_'
'conventions_'
'consult'
'consol'
'consists_'
'consistently_'
'connect'
'confront_'
'confirmation_'
'configuration_'
'condemn_'
'concentration_'
'compulsory_'
'competent_'
'competences_'
'compe'
'compa'
'committees_'
'commercial'
'combine_'
'college_'
'collected_'
'codes_'
'clothing_'
'clip'
'clinical_'
'clause_'
'clarification_'
'cker'
'citizenship_'
'chuld'
'chter'
'chte'
'chs_'
'chi_'
'cheaper_'
'characters_'
'chaos_'
'centr'
'celebrat'
'caught_'
'cast'
'cari'
'care'
'capture_'
'cano'
'camps_'
'calculate'
'cad'
'bury_'
'bull'
'broke_'
'breed'
'breast_'
'br'
'bonus_'
'boa'
'blut'
'bloß'
'blind'
'blick_'
'blic'
'bisherigen_'
'bild'
'bigger_'
'bezi'
'bewirkt_'
'betrieb'
'bestehende_'
'besi'
'beschäftigen_'
'besagt_'
'beru'
'bemerkt_'
'bemerkenswerte'
'beliebte'
'bekannte_'
'behe'
'begab_'
'befürchten_'
'befindliche'
'beeinträchtigt_'
'beeinflusst_'
'beantragen_'
'bay_'
'bathing_'
'bat'
'barriers_'
'baik_'
'bahn'
'bach'
'az_'
'ays_'
'award_'
'awa'
'autonomy_'
'auszul'
'ausste'
'ausr'
'ausgeh'
'ausgeg'
'auseinander_'
'ausb'
'aufwa'
'aufkommen_'
'aufh'
'auber'
'attract_'
'attempting_'
'atis'
'aste'
'assumption_'
'assist'
'asia'
'arro'
'arre'
'arr'
'arit'
'aries_'
'aren_'
'archi'
'archa'
'arbeite'
'approval_'
'apparently_'
'apologi'
'any'
'anticipated_'
'anr'
'anonym'
'anlagen_'
'anlage_'
'anl'
'anim'
'anger_'
'anerkennen_'
'ands_'
'ando'
'ander'
'anc'
'amt_'
'amenta'
'amend_'
'amen_'
'ame'
'amazing_'
'altogether_'
'allocated_'
'alle'
'align'
'aku'
'aktivieren_'
'aj'
'airports_'
'ahr'
'agieren_'
'agents_'
'aga'
'afraid_'
'aff'
'advances_'
'actor_'
'actively_'
'accus'
'acceptance_'
'abzus'
'abse'
'abhängt_'
'abhängen_'
'abd'
'abandon_'
'Zwei_'
'Zut'
'Zusagen_'
'Zunahme_'
'Zuf'
'Zie'
'Zeitplan_'
'Zeichen'
'Zei'
'Zauber'
'Zahlreiche_'
'Yen_'
'Yel'
'Yas'
'Yan'
'Xin'
'Wünsche_'
'Word_'
'Wild'
'Wiederherstellung_'
'Wett'
'Werbe'
'Weiteren_'
'Wein_'
'Wechsel_'
'Watch_'
'Warcraft_'
'Wahrscheinlich'
'Vorw'
'Vork'
'Vorgehensweise_'
'Vorfeld_'
'Volksgesundheit_'
'Vista_'
'Verzweiflung_'
'Vertrags'
'Vertrages_'
'Versorgungs'
'Versionen_'
'Verordnungen_'
'Verkehrsmittel_'
'Verkaufs'
'Verk'
'Verh'
'Verbrauch_'
'Vac'
'VI_'
'VAT_'
'Ut'
'Ursache_'
'Unterstütz'
'Unterkünfte_'
'Unterdrückung_'
'Ult'
'UT'
'UNG_'
'UE'
'Tür_'
'Turk'
'Tur'
'Tschetschenien_'
'Transa'
'Tourismus_'
'Tourism_'
'Tour'
'Torre'
'Top_'
'Tom'
'Together_'
'Todesfälle_'
'Tod'
'Tea'
'Tao'
'Tab'
'TR'
'Südafrika_'
'Szenario_'
'Symp'
'Subventionen_'
'Strom_'
'Sti'
'Starfleet_'
'Standort'
'Spur'
'Speisen_'
'Spannungen_'
'Space_'
'Sowohl_'
'Southern_'
'Solar'
'Skep'
'Sitz'
'Situationen_'
'Sicherheitsrat_'
'Sicher'
'Show'
'Semi'
'Select_'
'Sea'
'Scotland_'
'Schüler_'
'Schä'
'Schwellen'
'Schulz_'
'Schn'
'Schmerz'
'Schluss'
'Schlu'
'Schlag_'
'Schlafzimmer_'
'Schl'
'Schatten_'
'Sammlung_'
'Sad'
'Sab'
'ST_'
'SG'
'SER'
'SC'
'Ruh'
'Rohstoff'
'Ris'
'Rhein'
'Rest'
'Resi'
'Reservierung_'
'Repr'
'Renn'
'Renaissance_'
'Rek'
'Reichweite_'
'Regions_'
'Rea'
'Ratspräsident_'
'Rande_'
'Railway_'
'ROM_'
'RA_'
'Question_'
'Quest'
'Queen_'
'Qualifikation'
'Qaeda_'
'Prozesse_'
'Prot'
'Presidents_'
'Pres'
'Port_'
'Pop'
'Politic'
'Pod'
'Plenum_'
'Ple'
'Play'
'Pis'
'Philosophie_'
'Pharma'
'Pflege_'
'Perl'
'Parti'
'Parks_'
'Park'
'Papa'
'Palästina_'
'Pad'
'Pack_'
'Paar_'
'PS_'
'Out'
'Others_'
'Orts'
'Orte_'
'Orl'
'Original_'
'On'
'Oli'
'Ok'
'Offizier'
'OT'
'OR'
'OC'
'Nö'
'Nordic_'
'Nokia_'
'Nikon_'
'Nicolas_'
'Nic'
'Nationalismus_'
'Nationalen_'
'Nar'
'Nan'
'Nachdruck_'
'NT_'
'NICHT_'
'NG_'
'München_'
'Mut_'
'Mund'
'Mul'
'Mozilla_'
'Mord_'
'Mons'
'Mond'
'Modus_'
'Mode_'
'Mille'
'Milch'
'Miet'
'Mid'
'Metro'
'Messen'
'McCain_'
'Mathematik_'
'Marokko_'
'Marco_'
'Mandat_'
'Mand'
'ME_'
'Lü'
'Lä'
'Luxembourg_'
'Look_'
'Lockerung_'
'Loc'
'Lobby_'
'List_'
'Linien_'
'Library_'
'Lesung_'
'Lese'
'Leiter_'
'Led'
'Lebensmittel_'
'Lea'
'Lange'
'Lands'
'Labor'
'LU'
'LT'
'LG'
'Kürze_'
'König'
'Kä'
'Kroatien_'
'Kriege_'
'Kreditkarte_'
'Kre'
'Konzentration_'
'Kont'
'Konse'
'Konflikten_'
'Kommissionspräsident_'
'Kommissions'
'Kohle_'
'Koh'
'Know_'
'Kle'
'Key_'
'Katalog_'
'Karls'
'Kap'
'Kann_'
'Kali'
'Justiz'
'Jur'
'Jugoslawien_'
'Jugendlichen_'
'Jugend_'
'Juan_'
'Jordanien_'
'Jan_'
'Jahrestag'
'Jac'
'JP'
'Islamis'
'Internetzugang_'
'Installer_'
'Innovations'
'Inlands'
'Ini'
'Inf'
'Indi'
'Immobilien'
'Immo'
'Images_'
'Identifi'
'Ibiza_'
'ID'
'Hund'
'Hot'
'Host'
'Hohen_'
'Hindernisse_'
'Hier'
'Herbst_'
'Herb'
'Heizung_'
'Hauptver'
'Haupts'
'Harmonisierung_'
'Hardware_'
'Harbour_'
'Ham'
'HS'
'Gäste'
'Guinea_'
'Grö'
'Greens_'
'Graf'
'Governments_'
'Golf'
'Glo'
'Gewährleistung_'
'Gesellschafts'
'Gerade_'
'Gepäckraum_'
'Gegens'
'Geber'
'Gay_'
'Gaulle_'
'Gates_'
'Gall'
'Galileo_'
'GM_'
'G20_'
'Fürs'
'Fü'
'Fundamental_'
'Friday_'
'Freundschaft_'
'Freund'
'Fremd'
'Fre'
'Franz'
'Franklin_'
'Francisco_'
'Flexibilität_'
'Fleisch_'
'Five_'
'Finnland_'
'Finanzsektor'
'Finanzen_'
'Filter'
'File_'
'Festplatte_'
'Feinde_'
'Fehler'
'Fatah_'
'Fass'
'Farbe_'
'Fan'
'Fam'
'Fahrzeuge_'
'Fahrrad'
'FR'
'FE'
'FARC_'
'Explorer_'
'Expert'
'Experience_'
'Erwärmung_'
'Erneuerung_'
'Erla'
'Entwicklungsp'
'Entscheidungs'
'Energiet'
'Eliten_'
'Elevator_'
'Eis'
'Einschätzung_'
'Einf'
'Ehren'
'Ehre_'
'Ehe'
'EF'
'ED'
'Dusche_'
'Drittländern_'
'Drei_'
'Drama'
'Donnerstag_'
'Dona'
'Domin'
'Display_'
'Dir'
'Dingen_'
'Dienst_'
'Desktop_'
'Dem'
'Deflation_'
'Deal_'
'Darstellung_'
'Danach_'
'DAT'
'Custom'
'Cup_'
'Croatia_'
'Crespo_'
'Create_'
'Comp'
'Comm'
'Clearly_'
'Cle'
'Citizens_'
'Cin'
'Cent'
'Carolin'
'Carlo_'
'Cardassian'
'Cala_'
'CP'
'COM_'
'CB'
'Börsen'
'Bru'
'Brown_'
'Brand'
'Borg_'
'Boh'
'Blin'
'Bill_'
'Bilanzen_'
'Bilanz_'
'Bie'
'Between_'
'Bet'
'Besorgnis_'
'Beseitigung_'
'Besatzung_'
'Berliner_'
'Begründung_'
'Beendigung_'
'Bedien'
'Based_'
'Barri'
'Balkon_'
'BR'
'BM'
'BC_'
'Autoren_'
'Ausst'
'Ausgaben'
'Ausg'
'Ausbildungs'
'Ausbeutung_'
'Aufsch'
'Aufs'
'Ass'
'Arti'
'Aro'
'Arafat_'
'Arabischen_'
'Araber_'
'Ara'
'Ansch'
'Anruf'
'Anreiz_'
'Anna'
'Anlage'
'Ank'
'Angl'
'Angebots'
'Anfragen_'
'Andre'
'Andr'
'Andererseits_'
'Ander'
'Analys'
'Among_'
'Alters'
'Alten'
'Alp'
'Allow_'
'Allein_'
'Ali_'
'Ali'
'Aktions'
'Aktien'
'Akt'
'Age_'
'Aff'
'Adria'
'Ach'
'Abz'
'Abbas_'
'Abb'
'AVI_'
'AF'
'ACP_'
'? '
'== _'
'="_'
';&#_'
': '_'
'92_'
'89_'
'83_'
'76'
'74_'
'70'
'69_'
'65'
'51_'
'28'
'1975_'
'1955_'
'1930_'
'176'
'175'
'150'
'.) _'
'. )'
'--'
', '_'
'%_'
'!!_'
' – _'
' »_'
' ``_'
' * _'
' %._'
' %'
' $ _'
'�'
'€ _'
'ю'
'ш'
'ц'
'с_'
'но'
'не_'
'ко'
'ка'
'ер'
'во'
'ат'
'α_'
'α'
'üß'
'üstung'
'üs'
'üllung'
'ühr'
'üh'
'ügen_'
'üd'
'übt_'
'ø'
'öße'
'östliche'
'öse_'
'örtlichen_'
'örter'
'öre'
'örder'
'öne'
'ín'
'éta'
'ça_'
'å_'
'å'
'äumt_'
'ätte'
'ätig'
'ät'
'änglich'
'äng'
'äm'
'ägyptischen_'
'ächtnis'
'Übersetzungs'
'Übernahme_'
'Überlegungen_'
'Übera'
'° _'
'®'
'« _'
'}} '
'zü'
'zwingen_'
'zweier'
'zuverlässige'
'zusammenf'
'zurückz'
'zurückkehren_'
'zur'
'zunehmen_'
'zukünftig'
'zukommen_'
'zuha'
'zugeh'
'zufügen_'
'zo_'
'ziele_'
'zeigte_'
'zahlt_'
'yacht'
'xo'
'wäh'
'wä'
'writer'
'workforce_'
'wonder'
'woch'
'witnessed_'
'wissens'
'winner_'
'wines_'
'wild_'
'wheel_'
'wesens_'
'wertung_'
'werk'
'werdende'
'wenigsten_'
'weiterzu'
'weitem_'
'wechseln_'
'wealthy_'
'weakening_'
'wasn_'
'warrant'
'warme'
'wann_'
'wandeln_'
'wan_'
'walk'
'wald_'
'wahre'
'wahlen_'
'wahl'
'wag'
'vorzus'
'vorschlag_'
'vorliegt_'
'vorgestellt_'
'vorgeschlagene_'
'vorg'
'voranzutreiben_'
'volu'
'void'
'vita'
'vist'
'visitor_'
'visa_'
'vili'
'vierte'
'vieler'
'viable_'
'veröffentlichte_'
'veränderte'
'vertrete'
'versuchten_'
'verschl'
'vermute'
'verläss'
'verlorene'
'verlor_'
'verliert_'
'verknüpft_'
'verkauft_'
'verha'
'verfolgte'
'verbreitet_'
'verbind'
'veranstalte'
'venture_'
'ventur'
'vegetables_'
'vas'
'variations_'
'varia'
'vak'
'vacation_'
'vac'
'uve'
'utz'
'utiliz'
'utama_'
'urlaub_'
'uran'
'ura_'
'ups'
'unzählige_'
'unweit_'
'unum'
'unterwegs_'
'unterminier'
'unterliegt_'
'unterliegen_'
'unterl'
'unsicheren_'
'unin'
'unified_'
'ungsw'
'ungsg'
'ungen'
'unfa'
'uneingeschränkt_'
'undertake_'
'understands_'
'unde_'
'unaus'
'unanimously_'
'umfassender_'
'ume'
'uld'
'ulate'
'ugs'
'ues_'
'ucti'
'ucht'
'uchs_'
'uan_'
'türkische_'
'té_'
'tätigen_'
'tzte_'
'turmoil_'
'tungs'
'tude_'
'tub'
'tts'
'tta'
'tsunami_'
'träge_'
'trä'
'trouble'
'tropical_'
'treatments_'
'trat_'
'tras'
'transp'
'translated_'
'transatlanti'
'trains_'
'traditionally_'
'trad'
'trace'
'toxi'
'tot'
'topp'
'tooth_'
'too'
'tolle'
'todo'
'tod'
'tlich'
'tive'
'tional'
'till_'
'tile'
'tif'
'tiere'
'tiefer_'
'tie_'
'tid'
'tiat'
'thirds_'
'thin'
'theoretische'
'testen_'
'terra'
'tern_'
'terminal_'
'telling_'
'tellen_'
'tehen_'
'tee'
'teacher_'
'tched_'
'tatt'
'tasty_'
'tangible_'
'tana'
'tall'
'tags'
'tad'
'südlich_'
'sätze_'
'sys_'
'symbolic_'
'sym'
'switched_'
'swer'
'suspicion_'
'survival_'
'survey_'
'suppliers_'
'superb_'
'sung'
'summe'
'sum'
'sui'
'suddenly_'
'suche_'
'subjects_'
'ständ'
'struggling_'
'stru'
'stro'
'strange_'
'straightforward_'
'stories_'
'stood_'
'stick_'
'stetig_'
'stehende_'
'sted_'
'stattgefunden_'
'startet_'
'stamm'
'stal'
'sta_'
'ssa'
'späten_'
'spro'
'sprachliche'
'sprach'
'split_'
'spiritu'
'speed'
'specify_'
'sozialistische'
'sound'
'sorti'
'solch_'
'sogenannte_'
'sofa_'
'smart'
'slight_'
'sleeping_'
'sl'
'siz'
'situationen_'
'sinken_'
'sink'
'simultaneously_'
'sili'
'signing_'
'signals_'
'sichtig'
'sian_'
'shutt'
'shortly_'
'shortcomings_'
'shocks_'
'shipping_'
'shell_'
'shaped_'
'sex_'
'settle_'
'serv'
'senti'
'sent'
'self'
'sect'
'secondly_'
'secondary_'
'seas'
'script'
'screens_'
'scrap'
'score'
'sco'
'schädliche'
'schwerwiegende'
'scht'
'schne'
'schlimm'
'schiff_'
'schauen_'
'schaff'
'sceptic'
'satu_'
'sak'
'sach'
'rö'
'räge'
'rw'
'rtun'
'rto'
'rooted_'
'roche'
'rnen_'
'rmen_'
'rken_'
'rke_'
'ritt_'
'risen_'
'rigid'
'rid_'
'richtet_'
'rhe'
'rfe'
'returning_'
'retro'
'reta'
'restrictive_'
'responsi'
'respond'
'respect'
'reso'
'res'
'requests_'
'repressive_'
'reno'
'relevante'
'rejection_'
'reite'
'reit'
'rein'
'reifen_'
'reichende'
'regionen_'
'regen'
'refusal_'
'refus'
'recognizes_'
'reco'
'rechnen_'
'rechen_'
'rech'
'recess'
'receiving_'
'rece'
'recall'
'reap'
'realized_'
'realised_'
'reader_'
'rchi'
'raums_'
'rati'
'rata_'
'rasche'
'ranc'
'rali'
'rail'
'rahmen_'
'radikalen_'
'radar_'
'rad_'
'quit'
'py_'
'pushing_'
'purchasing_'
'punc'
'pull_'
'präsidenten_'
'pru'
'proven_'
'protesti'
'protest_'
'prosperous_'
'prosper'
'prosecut'
'proof_'
'promptly_'
'prohibited_'
'professionals_'
'proceed_'
'proceed'
'problematic_'
'probability_'
'prob'
'privatis'
'privater_'
'prim'
'pretty_'
'presenting_'
'premium_'
'premature_'
'preferred_'
'prefer'
'prec'
'pr'
'ppi'
'ppen_'
'ppa'
'pot_'
'possession_'
'popularity_'
'popul'
'poorly_'
'poly'
'point'
'pläne_'
'plä'
'plum'
'plug_'
'plo'
'plane_'
'pl'
'pier'
'piele'
'pieces_'
'physische'
'pet_'
'perusahaan_'
'persuade_'
'persistent_'
'permanently_'
'performing_'
'pere'
'peng'
'pem'
'pela'
'pei'
'peak'
'patents_'
'passi'
'partitions_'
'partial_'
'parlamentarischen_'
'pal_'
'paket_'
'owe'
'oversight_'
'overr'
'outright_'
'outrage'
'outline_'
'outcomes_'
'ours_'
'oto'
'osh'
'orta'
'orp'
'oris'
'ordentliche'
'optimale_'
'operator_'
'ony_'
'olt'
'olo_'
'oll'
'olitische'
'oka'
'ohl'
'ogg'
'oga'
'offs'
'od_'
'oche'
'occupation_'
'observation_'
'objecti'
'oba'
'nü'
'nä'
'nze'
'ntri'
'ntion_'
'nted_'
'nsta'
'nos_'
'nnte'
'nnt_'
'nko'
'nische_'
'nik'
'nightlife_'
'nichts'
'nian'
'nger_'
'nga'
'newsletter_'
'nent_'
'neglect_'
'negativ_'
'nee'
'ndung_'
'ndl'
'nces_'
'navigate_'
'natürliche_'
'nationalism_'
'nate'
'nah'
'nag'
'nachdrücklich_'
'nac'
'mündlichen_'
'möge_'
'mé'
'mäßig_'
'mäß'
'musik_'
'murder_'
'moves_'
'mov'
'mood_'
'moo'
'momentane'
'modules_'
'moderate_'
'moderate'
'modell_'
'mmung'
'mixture_'
'mitzu'
'mittelalterliche'
'mitt'
'mitge'
'mite'
'minorities_'
'minim'
'mf'
'methoden_'
'mete'
'merge'
'menschen'
'menge'
'mema'
'medizinische_'
'measured_'
'mba_'
'mau'
'matic_'
'matche'
'master_'
'massa'
'maschine_'
'marine_'
'margin_'
'mar_'
'mapp'
'manufacturer_'
'mainstream'
'lös'
'längst_'
'lä'
'lw'
'lution'
'lue'
'lto'
'lti'
'lter'
'loser_'
'losen_'
'logisti'
'lock_'
'llt_'
'lling_'
'llers_'
'liti'
'listening_'
'liquid'
'lio'
'linken_'
'lings_'
'limiting_'
'liebe_'
'licherweise_'
'liberty_'
'lh'
'letztendlich_'
'lent'
'leitet_'
'lei'
'laying_'
'late'
'last'
'lande'
'lama'
'lade'
'lace'
'könnt_'
'kurzer_'
'kung'
'kum'
'kul'
'ktor_'
'kst'
'krisis_'
'kris'
'kreuz'
'kopieren_'
'konzept'
'konstruktive_'
'konservative'
'konse'
'konkret_'
'kong'
'konflikt'
'komplette_'
'komplette'
'komp'
'kommerziellen_'
'kommerzielle_'
'komfortablen_'
'kolonial'
'koll'
'kni'
'kleines_'
'kleineren_'
'klein'
'klapp'
'kis'
'kilo'
'kill_'
'kie'
'kett'
'kers_'
'kenne_'
'kenn'
'keeps_'
'kd'
'kauf'
'kata'
'karten_'
'kapazität'
'kah_'
'judges_'
'jointly_'
'jer'
'jegliche'
'jan_'
'jahr'
'itte'
'itt_'
'its'
'ita_'
'isn_'
'ism'
'islamischen_'
'isa'
'irt'
'irs_'
'irrelevant_'
'ique_'
'ios'
'ior'
'ioni'
'ional'
'invited_'
'investi'
'interpreti'
'interp'
'intermedia'
'intensiven_'
'intensiv'
'intense_'
'integrierten_'
'integrierte_'
'inta'
'int'
'installer_'
'inspectors_'
'insofern_'
'inso'
'insel'
'inne'
'inhalt'
'infringement_'
'influ'
'infa'
'inexp'
'individuali'
'incl'
'inciden'
'inca'
'inar'
'impulse_'
'importe'
'importantly_'
'imper'
'immt_'
'immense'
'imme'
'ime_'
'ily_'
'illustrate'
'illig'
'ilie'
'iler'
'iko'
'ih'
'igne'
'igli'
'igkeiten_'
'ight_'
'iges_'
'ießen_'
'ies'
'ierungen_'
'ierenden_'
'iens_'
'ieh'
'identifizier'
'idealer_'
'iche'
'ication_'
'ica'
'ibt_'
'ib'
'höchst'
'hôtel_'
'hän'
'hurt_'
'hunting_'
'hun'
'humanitären_'
'humanitäre_'
'hum'
'htm'
'hti'
'hten_'
'hs'
'host'
'hop'
'hol_'
'hkan_'
'his'
'hint'
'hinein_'
'highway_'
'high'
'hierzu_'
'hierfür_'
'hierarchi'
'hetero'
'hesita'
'herzustellen_'
'hervor'
'hersteller_'
'herstellen_'
'herein'
'hered_'
'herb'
'herausstellen_'
'herausf'
'height_'
'hbo'
'haushalt'
'happiness_'
'hac'
'gun_'
'guidance_'
'gue_'
'gten_'
'grim'
'grants_'
'governed_'
'got'
'god'
'globally_'
'gger_'
'gezielte'
'gewissem_'
'gewicht'
'gestützt_'
'gesto'
'gesp'
'gesorgt_'
'gesichert_'
'geschäft_'
'geschl'
'gescheitert_'
'geräte_'
'geru'
'geringere'
'gerechten_'
'gerech'
'gera'
'geplanten_'
'geopolitische'
'geographical_'
'genießt_'
'gemütliche_'
'gelangt_'
'geist'
'gegenseitige_'
'gefährlicher_'
'gefragt_'
'geeignete_'
'gebunden_'
'gd'
'gases_'
'gari'
'führten_'
'fühlt_'
'fühl'
'furt'
'fung_'
'functional_'
'fulfilled_'
'fristige'
'friedlichen_'
'freier_'
'frag'
'founding_'
'forums_'
'formula'
'formats_'
'formation'
'forecasts_'
'forderte_'
'forcing_'
'foods_'
'foc'
'fizi'
'fitt'
'fifth_'
'fielen_'
'fiction_'
'fic'
'felder_'
'feet_'
'feasible_'
'favour'
'favorite_'
'favored_'
'fault_'
'fat_'
'faszinier'
'fascinating_'
'fant'
'fan_'
'famili'
'falt'
'faktor_'
'fahr'
'factories_'
'faction'
'extremists_'
'externen_'
'extern'
'extending_'
'exporting_'
'exportier'
'experimental_'
'expenditures_'
'existiert_'
'exhibition_'
'exempl'
'executed_'
'exe'
'exa'
'everyday_'
'euren_'
'eur'
'ette_'
'eter_'
'eten'
'etch'
'erwartete'
'erupt'
'ertrag'
'erstklassige'
'erse'
'errichten_'
'erpr'
'erode'
'erni'
'eria'
'erhol'
'ergänzt_'
'erfolg'
'erer_'
'erati'
'eradicat'
'epidemic_'
'ep_'
'enve'
'entzieh'
'entspannen_'
'entschl'
'entities_'
'entertain'
'enten_'
'enta'
'ensch'
'enormously_'
'enorm_'
'enjoying_'
'englische'
'endgültigen_'
'encompass'
'enburg_'
'empty_'
'employee_'
'emphasize'
'emphasis'
'emo'
'embrace_'
'embargo_'
'elu'
'elte'
'ella'
'elig'
'ej'
'eise'
'einzuf'
'einzigartig'
'eintr'
'einräumen_'
'einiges_'
'einig_'
'einheitlich'
'eingeladen_'
'einführen_'
'eindeutige_'
'eil_'
'eigen'
'ehr_'
'ehe_'
'eh'
'egte_'
'egi'
'efi'
'eff'
'efe'
'educated_'
'edition_'
'economist_'
'ecological_'
'eckung'
'echen_'
'ebo'
'eben'
'eating_'
'eate'
'durchgeführte'
'duration_'
'dung_'
'dry_'
'drig'
'drafted_'
'doppelte'
'dominate_'
'divisions_'
'dispute_'
'disku'
'disg'
'discredit'
'discoveri'
'discharge_'
'disastrous_'
'dip_'
'dim'
'differently_'
'dicht_'
'deva'
'determining_'
'detected_'
'derived_'
'deriv'
'deposit_'
'deployment_'
'depl'
'dependence_'
'denselben_'
'denominat'
'denied_'
'demokratisch_'
'delicate_'
'dei_'
'defeated_'
'decrease_'
'declare_'
'deckt_'
'dac'
'curs'
'cultures_'
'cultivat'
'ctua'
'cts_'
'crowd'
'crops_'
'cro'
'critics_'
'criminals_'
'crack'
'council_'
'coole'
'cook'
'contro'
'contest_'
'constructed_'
'constraints_'
'consi'
'conservation_'
'conse'
'confronted_'
'conf_'
'conf'
'cond'
'comp'
'commodities_'
'colonial_'
'coe'
'coc'
'clu'
'clon'
'clo'
'clicking_'
'classical_'
'class'
'cken'
'cite'
'cip'
'ciones_'
'ciona'
'cin'
'cial_'
'chung_'
'chtet_'
'christliche'
'choosing_'
'chk'
'chir'
'chemische_'
'chee'
'chas'
'charm'
'change'
'champion_'
'champ'
'centers_'
'cate'
'catastrophe_'
'carrier_'
'capitalist_'
'capita_'
'capacit'
'cancelled_'
'bürokratische'
'bü'
'bä'
'bus'
'burning_'
'bun'
'buck'
'brother_'
'broker'
'breiter_'
'breakthrough_'
'breaking_'
'brain_'
'boy'
'boundaries_'
'booked_'
'bon_'
'boasts_'
'boards_'
'bloody_'
'bless'
'blen'
'bl'
'bill'
'bike_'
'bien_'
'bic'
'bha'
'bewiesen_'
'bewerten_'
'bevorzugte'
'beverages_'
'betreu'
'bete'
'beso'
'beschädigt_'
'beschr'
'berühmt'
'bert'
'berkembang_'
'berichte'
'bereitet_'
'bereich'
'bende'
'benachrichtigt_'
'beln_'
'belegt_'
'beizutragen_'
'beizu'
'beiten_'
'beite'
'beis'
'behinder'
'begünstig'
'begrenzt_'
'begrenzen_'
'begr'
'beginne'
'befre'
'befo'
'befasst_'
'bedürf'
'bedauerlich_'
'bea'
'battery_'
'basi'
'bares_'
'bankers_'
'ava'
'authorise'
'authori'
'aute'
'aut'
'auswärtige_'
'aussicht'
'ausse'
'ausgewogene'
'ausgedrückt_'
'aufweist_'
'aufk'
'aufget'
'aufgefordert_'
'aufgef'
'auffordern_'
'auff'
'aufen_'
'attacked_'
'attach'
'atta'
'ats_'
'ators_'
'atan_'
'asti'
'ast_'
'assurance_'
'assumed_'
'assist_'
'assigned_'
'assessments_'
'asse_'
'asp'
'ash'
'asch'
'aru'
'arts_'
'arme'
'ark'
'aris'
'aria'
'arde'
'archite'
'arche'
'appr'
'ap_'
'anwesend_'
'anwenden_'
'antin'
'anten_'
'anstre'
'ansteigen_'
'anschau'
'ans'
'anischen_'
'anhaltenden_'
'angl'
'angepasst_'
'angemessen_'
'angelegt_'
'angef'
'angan_'
'anfällig_'
'aner_'
'anchor'
'anak_'
'ami_'
'amended_'
'altung_'
'alts'
'allocation_'
'allgemeinem_'
'alleged_'
'alit'
'alist'
'alike_'
'ali'
'aktion_'
'ain'
'ags_'
'afflict'
'affair_'
'advent'
'admi'
'adj'
'adidas_'
'adhere'
'addict'
'adapted_'
'acquisition_'
'acknowledg'
'accura'
'abzusch'
'absurd_'
'abilities_'
'abgestimmt_'
'abgesehen_'
'abgehalten_'
'aan_'
']] | _'
'Zustellbetten_'
'Zugriff'
'Zugangs'
'Zone_'
'Zimmerbeschreibung_'
'Zertifikat'
'Zell'
'Zeitungen_'
'Yugoslavia_'
'Young_'
'Yemen_'
'YO'
'XML_'
'Wählern_'
'Wo_'
'Wis'
'Wind_'
'Wiederauf'
'Widerstands'
'WiFi_'
'Wertpapier'
'Wer'
'Weltmarkt'
'Weltkriegs_'
'Weltbevölkerung_'
'Wellness'
'Weiterhin_'
'Weis'
'Wed'
'Wan'
'Wai'
'Wahr'
'WA'
'Voyager_'
'Votum_'
'Vorstellungen_'
'Vorgänger_'
'Vorbereitungen_'
'Virus_'
'Vir'
'Vin'
'Viertens_'
'Vid'
'Veröffentlichung_'
'Verwirklichung_'
'Verschw'
'Verschuldung_'
'Versand'
'Versa'
'Vermögens'
'Vermeidung_'
'Verkauf_'
'Verhältnis'
'Verhaltens'
'Vergnügen_'
'Verfechter_'
'Verfass'
'Vat'
'Vari'
'VE'
'VA'
'Ursprung_'
'Unternehmer_'
'Unternehmenss'
'Unterhaltungs'
'Untere'
'Unsere'
'Ungleichgewicht'
'Unfähigkeit_'
'Un_'
'Umweltfragen_'
'Umstände_'
'US'
'UNESCO_'
'Tuni'
'Trends_'
'Treasury_'
'Trans_'
'Tower_'
'Touristen_'
'Tos'
'Tools_'
'Todes'
'Tief'
'Tickets_'
'Through_'
'Thi'
'Theor'
'Theater_'
'Tempora'
'Tech_'
'Tarif'
'Tabelle_'
'Taba'
'TU'
'TT'
'TC'
'TB_'
'Süda'
'Sü'
'Swoboda_'
'Swi'
'Swa'
'Supp'
'Superma'
'Sunni_'
'Sun'
'Summe_'
'Suiten_'
'Subject_'
'Stück_'
'Sturz_'
'Sturm_'
'Studium_'
'Studien_'
'Studie'
'Stud'
'Strände_'
'Streitigkeiten_'
'Streben_'
'Storage_'
'Stock_'
'Stimmung_'
'Statistik_'
'Station'
'Sprech'
'Spre'
'Spr'
'Spieler'
'Spenden'
'Spare'
'Sozials'
'Sowjet'
'Source_'
'Somit_'
'Sometimes_'
'Solarium_'
'Solange_'
'Software'
'Sn'
'Smith_'
'Small_'
'Sky_'
'Ska'
'Six_'
'Sisko_'
'Single_'
'Singapore_'
'Sie'
'Sicherheitsa'
'Sicherheits_'
'Shops_'
'Server'
'Series_'
'Sensor'
'Sem'
'Sekunde_'
'Seit'
'Seba'
'Schönheit_'
'Schön'
'Schwellenländern_'
'Schritten_'
'Schreib'
'Schlussfolgerung_'
'Schli'
'Schiffs'
'Scan'
'Saturday_'
'Satellite'
'SanDisk_'
'Salzburg_'
'Sachen_'
'SW'
'STE'
'SR'
'SN'
'SL'
'SH'
'SCH'
'Rückzahlung'
'Rücken_'
'Rö'
'Russians_'
'Rule_'
'Roten_'
'Roh'
'Rog'
'Rock'
'Right_'
'Rezept'
'Review_'
'Rental_'
'Remo'
'Religion_'
'Reisen_'
'Reinigung_'
'Reihenfolge_'
'Regen'
'Ree'
'Reduc'
'Reco'
'Rechn'
'Rahmens_'
'Rab'
'RS_'
'RI_'
'Quick'
'Quant'
'Putins_'
'Pun'
'Publi'
'Psych'
'Präsidentschaftswahl'
'Protection_'
'Process_'
'Privileg'
'Privatisierung_'
'Premi'
'Pot'
'Popular'
'Pon'
'Polizei'
'Polic'
'Plätze_'
'Pit'
'Pir'
'Pilot'
'Pierre_'
'Pie'
'Picard_'
'Phil'
'Personen'
'Pers'
'Patch'
'Partners'
'Partnern_'
'Parameter_'
'Palacio_'
'Pakt_'
'Pak'
'Pac'
'PXI_'
'PDF_'
'PAR'
'Oxford_'
'Ot'
'Ordner_'
'Optimis'
'Oper'
'Ombudsman_'
'Olympus_'
'Oh'
'Og'
'Oc'
'Oberste'
'Oberfläche_'
'OG'
'ODER_'
'Nähr'
'Nue'
'Nin'
'Niederlande_'
'Nichts'
'Ner'
'Nelson_'
'Nap'
'Nam'
'Nachhaltigkeit_'
'Nachfolger_'
'NS_'
'NC'
'NB'
'Mün'
'Multi_'
'Much_'
'Movement_'
'Motto_'
'Motiv'
'Mos'
'Modul_'
'Modelle_'
'Modell'
'Mittag'
'Mitglieds'
'Mitentscheidung'
'Missbrauch_'
'Mine'
'Milosevic_'
'Militär_'
'Milan_'
'Mexican_'
'Meth'
'Messe_'
'Menschenrechten_'
'Mem'
'Medic'
'Mazedonien_'
'Maus'
'Matt'
'Materialien_'
'Marx_'
'Marktwirtschaft_'
'Marken'
'Map'
'Manage'
'Malta_'
'Male'
'Malay'
'Malaria_'
'MH'
'MED'
'Luxus_'
'Luxemburg_'
'Love'
'Los'
'Logo_'
'Lizenz_'
'Liv'
'Little_'
'Linken_'
'Linke_'
'Line_'
'Letztere'
'Letzte'
'Less'
'Len'
'Leistungsfähigkeit_'
'Leid_'
'Lehrer_'
'Lebensbedingungen_'
'Lay'
'Lauf_'
'Lar'
'Language_'
'Landschaft_'
'Lama_'
'Lad'
'Labor_'
'LA_'
'Krisen_'
'Kraftstoff'
'Kos'
'Korr'
'Kop'
'Kontinents_'
'Kontakt'
'Konferenz'
'Komplex'
'Komp'
'Kom'
'Kollege_'
'Klon'
'Klassen'
'Kenne'
'Kenn'
'Katastrophen_'
'Karr'
'Kanada_'
'Kaffee_'
'Kaffee'
'Kabel_'
'Kab'
'KON'
'Jin'
'Jesus_'
'Jere'
'Jas'
'Jane'
'Jakob'
'Jak'
'Invasion_'
'Intervention_'
'Intel_'
'Instan'
'Installations'
'Inst'
'Indonesien_'
'Indians_'
'Importe'
'Impl'
'Impf'
'Immobilien_'
'Il'
'ION_'
'IN_'
'IK'
'ICEcat_'
'Höchst'
'Häuser_'
'Häfen_'
'Hä'
'Hyatt_'
'Human'
'Hug'
'How'
'Horizont'
'Holland_'
'Hohe_'
'Hoffnungen_'
'Hitler_'
'Hisbollah_'
'Hindernis_'
'Heu'
'Herkunft_'
'Help_'
'Hektar_'
'Heads_'
'Haut'
'Hat_'
'Hart'
'Hannover_'
'Hall'
'HE'
'Güter'
'Gy'
'Guatemala_'
'Guard'
'Grünen_'
'Größen'
'Grundlagen_'
'Grie'
'Go_'
'Gläubiger_'
'Gewinn_'
'Get'
'Gespräch'
'Gesetzgeb'
'Gesetzes'
'Geschlechter'
'Gemeinschaftsp'
'Gemeinsam_'
'Gemeinde_'
'Gelds'
'Gegenzug_'
'Gegenwärtig_'
'Gegenstände_'
'Gegen_'
'Gefühle_'
'Gefa'
'Gas_'
'Gard'
'Ganze_'
'Gal'
'Furcht_'
'Freitag_'
'Freilassung_'
'Franc'
'Frag'
'Forscher_'
'Following_'
'Folgendes_'
'Folge'
'Fitness_'
'Finanzmittel_'
'Finanzinstitute_'
'Filme_'
'Few_'
'Fertig'
'Feier'
'Fehlen_'
'Feed'
'Fee'
'Fau'
'Fahrer_'
'Fac'
'FL'
'Export_'
'Existenz'
'Ever'
'Evans_'
'Estonia_'
'Esp'
'Esc'
'Erw'
'Ern'
'Erdöl'
'Ep'
'Enth'
'Entfernung_'
'Englisch_'
'Endes_'
'Ende'
'End_'
'Enc'
'Employment_'
'Electronic'
'Eisen'
'Einzelnen_'
'Eintritt'
'Einst'
'Einsatz'
'Eingang_'
'Eigentums'
'Eigenheim'
'Ef'
'Eden_'
'Eco'
'Eb'
'ESS'
'ENT_'
'ENT'
'ECH'
'EB'
'Dubai_'
'Drei'
'Dre'
'Dominica'
'Disabled_'
'Diplomatie_'
'Diktatur_'
'Diktat'
'Digi'
'Diesen_'
'Dienst'
'Dialogs_'
'Deposit_'
'Denken_'
'Demonstrationen_'
'Demokratisierung_'
'Demokrati'
'Dau'
'Danish_'
'Dafür_'
'Cross_'
'Crisis_'
'Crew_'
'Cr'
'Court'
'Coup'
'Cost'
'Corporate_'
'Corb'
'Cooperation_'
'Converter_'
'Conte'
'Cond'
'Communist_'
'Colombia_'
'Cit'
'Christine_'
'Child_'
'Chia'
'Chat'
'Cer'
'Cell'
'Cast'
'Car_'
'Canc'
'CEO_'
'CDs_'
'Bü'
'Business'
'Bureau_'
'Bundesregierung_'
'Bun'
'Bull'
'Buchung_'
'Browser_'
'Briten_'
'Brid'
'Boutique_'
'Bomb'
'Ble'
'Blas'
'Binnenmarktes_'
'Bindung'
'Bezeichnung_'
'Bez'
'Beweise_'
'Beweg'
'Betroffenen_'
'Betreiber'
'Betrag_'
'Betracht_'
'Besuche'
'Bestätigung_'
'Beschäftigten_'
'Beschwerden_'
'Bereits_'
'Benach'
'Bekanntlich_'
'Beförderung_'
'Befr'
'Bee'
'Bedrohungen_'
'Basic_'
'Base'
'BL'
'BERLIN_'
'Autonomie_'
'Auswe'
'Ausstellung_'
'Ausl'
'Ausblick_'
'Ausarbeitung_'
'Augenblick_'
'Auftr'
'Aufst'
'Auflösung_'
'Aufb'
'Att'
'Atomwaffen_'
'Asp'
'Asiens_'
'Are'
'Archer_'
'Arbeitszeit'
'Arbeitss'
'Arbeitsplatz'
'Arbeitskräften_'
'Arabi'
'Ansätze_'
'Anschl'
'Ang'
'Anf'
'Amm'
'Alte'
'Alpe'
'Allgemein'
'Albania_'
'Albani'
'Aktionsplan_'
'Airways_'
'Ahmadinedschad_'
'Add_'
'Account'
'Access'
'Abschaffung_'
'About_'
'Abg'
'Abenteuer_'
'Abend'
'A6_'
'>'
'=='
'78'
'74'
'7'
'47'
'41'
'360_'
'215'
'204'
'1988_'
'170_'
'1701_'
'.&_'
'.&#_'
'. "_'
') ._'
'") _'
'!!'
' » _'
' = [[_'
' --> _'
' &_'
'…_'
'тт'
'по'
'от'
'ор'
'кі'
'ен'
'бол'
'ақ'
'ι'
'še'
'ć_'
'ütz'
'ütte'
'üp'
'üf'
'üche_'
'übertrieben_'
'übersteig'
'überdenken_'
'ös_'
'öpf'
'öko'
'öhl'
'ór'
'ña'
'äßig_'
'äußerster_'
'äußer'
'ässig'
'ärer_'
'änderungen_'
'ändert_'
'älteste_'
'ält_'
'ält'
'äisch'
'ährung_'
'ähl'
'äftig'
'äche_'
'ä_'
'ár'
'ßl'
'ßer'
'Überle'
'Öffentliche_'
'Ärm'
' %'
'}} _'
'{'
'zy_'
'zwölf_'
'zwi'
'zustellen_'
'zus'
'zurückgeh'
'zurückf'
'zunichte_'
'zunehmende_'
'zug_'
'zona_'
'zili'
'zigsten_'
'zige'
'zieh'
'zens'
'zel'
'zeitlich'
'zeichne'
'zahlungen_'
'zahlung_'
'zad'
'yth'
'ystems_'
'yse'
'you'
'ycl'
'yan_'
'yak_'
'xy'
'xic'
'wünscht_'
'wusst'
'wung'
'wunderschönen_'
'wunderbare'
'wunder'
'wra'
'worried_'
'worker_'
'woll'
'wn'
'wirtschaftliches_'
'wirt'
'wirksamer_'
'wirk'
'wir'
'wing'
'windi'
'willkürlich'
'wies'
'widerspiegeln_'
'wider'
'widen'
'who'
'whe'
'wet'
'westliche_'
'wertvollen_'
'werten_'
'wen'
'wellness_'
'welle'
'weiße'
'weiterge'
'weiten_'
'weiger'
'wee'
'wed_'
'wechsel_'
'websites_'
'weakness_'
'wash'
'was'
'warn'
'wahrnehmen_'
'wachsende'
'vy_'
'vorw'
'vorsch'
'vorrangig'
'vorges'
'vorbe'
'vora'
'volatility_'
'vo_'
'vivi'
'visiting_'
'vierten_'
'vid'
'victim_'
'verzerr'
'verwu'
'verweigern_'
'verteil'
'verte'
'verständliche'
'verstr'
'versprochen'
'versp'
'versicherung_'
'versicher'
'verschr'
'verschmutz'
'verpa'
'verp'
'vernünftig'
'vernehm'
'vermittelt_'
'vermis'
'verlängern_'
'verletzt_'
'verifi'
'verhandeln_'
'verhaftet_'
'verh'
'vergrößern_'
'verga'
'vereint_'
'vereinfacht'
'verbundene_'
'verbringen_'
'verbindlich_'
'verarbeitung'
'verar'
'veness_'
'variant'
'vari'
'valued_'
'valley_'
'uung_'
'uts_'
'utig'
'uted_'
'uropa'
'url'
'urg_'
'uptu'
'ups_'
'upp'
'updates_'
'upcoming_'
'uous_'
'unzureichende'
'unzulä'
'untr'
'unterzeichne'
'unterstützten_'
'unterrichte'
'untern'
'unteren'
'untereinander_'
'unterbrochen'
'unsu'
'unreg'
'unjust'
'union'
'unilateral'
'ungsver'
'ungsprogramm'
'ungsfrei'
'unglücklich'
'ungleiche'
'ungewöhnliche'
'ungan_'
'unfold'
'unexp'
'undurch'
'undet'
'undermining_'
'undermine_'
'unbest'
'umr'
'umfassendere'
'umfassend_'
'umfang_'
'umbu'
'ulous_'
'ulier'
'ulde'
'ui_'
'uhi'
'ught_'
'uga'
'uern'
'uen'
'uct'
'uck'
'uc_'
'ubi'
'uber'
'uat'
'ua'
'tätig'
'tzen'
'typischen_'
'twentieth_'
'twe'
'tv'
'turno'
'tune'
'tua'
'ttu'
'tto'
'träum'
'trum'
'truck_'
'tril'
'tries_'
'trieb'
'treasur'
'trau'
'transporti'
'transparente'
'transatlantischen_'
'tragische'
'tragedy_'
'traf'
'toxic_'
'tos_'
'tory_'
'tor'
'toll_'
'tol'
'tner_'
'tlin'
'tliche_'
'tle'
'tl'
'tite'
'tism'
'tipp'
'tional_'
'timi'
'tige_'
'tically_'
'throw_'
'threatening_'
'tho'
'thick'
'thi'
'themes_'
'tge'
'tg'
'tf'
'textile_'
'terr'
'terie'
'tend'
'tena'
'tellte'
'teilt_'
'technologischen_'
'technische'
'technisch_'
'technic'
'tatsächliche_'
'tative'
'tat'
'tarif'
'tankers_'
'tand'
'talent_'
'tak'
'taine'
'tain_'
'tail'
'tage_'
'systematically_'
'syrische'
'synthesi'
'sympathy_'
'sy'
'sweet'
'suprem'
'supplier_'
'supp'
'suggestion_'
'sudden_'
'successor'
'suc'
'subway_'
'subsidize'
'subsidiari'
'subsidi'
'stü'
'stände_'
'styles_'
'stupid_'
'strip'
'streben_'
'straße'
'strategischer_'
'storm_'
'stopped_'
'stol'
'stoffen_'
'stock'
'still'
'stil'
'stie'
'stereo'
'stem'
'steigerung'
'steadily_'
'stea'
'stattfindenden_'
'statistical_'
'state'
'stair'
'stagna'
'stabiliz'
'stabilisieren_'
'stabilis'
'staats'
'staate'
'ssl'
'ssion'
'ssin'
'ssch'
'sre'
'späte'
'sprü'
'sprozess'
'sprache_'
'spr'
'spor'
'spite_'
'spiegel'
'sphere_'
'speziellen_'
'spends_'
'spell_'
'spell'
'spei'
'spann'
'sosial_'
'song_'
'somehow_'
'som'
'soll'
'socialism_'
'soar'
'smell'
'sman'
'slowly_'
'slip'
'skilled_'
'skeptic'
'skand'
'sincere'
'silver_'
'sika'
'signature_'
'sierungs'
'sicherer'
'shoulder_'
'shores_'
'shire_'
'shifting_'
'sexuellen_'
'sevent'
'settled_'
'ses'
'serta_'
'seren'
'serbische'
'sequence_'
'separation_'
'sentence'
'senden_'
'seme'
'sele'
'selama_'
'sek'
'seeing_'
'secrecy_'
'sebuah_'
'seba'
'screening_'
'sco_'
'schützt_'
'schädlich_'
'schwächeren_'
'schwierige_'
'schwachen_'
'schwache_'
'schuld'
'schottische'
'schnelles_'
'schmutz'
'schließe_'
'schlechteste'
'schlechten_'
'schine'
'schenken_'
'schen'
'schem'
'scheduled_'
'scen'
'saubere_'
'santa_'
'sani'
'sammeln_'
'sala'
'sailing_'
'sahen_'
'safer_'
'safeguard'
'räume_'
'räger_'
'räfte'
'rá'
'rv'
'rush'
'rul'
'ruch'
'rsi'
'rren_'
'rra'
'rozesse'
'rogramm'
'robuste'
'robi'
'roa'
'rma'
'rlich_'
'rkte'
'risky_'
'riskieren_'
'risk'
'risik'
'rigen'
'rig_'
'rieren_'
'riding_'
'ridge'
'rider'
'rich'
'rian'
'rgi'
'rgen_'
'rgen'
'rfer'
'rez'
'reward_'
'revolutions_'
'reviv'
'reveal'
'retains_'
'resu'
'restr'
'restoring_'
'ressi'
'resse'
'responded_'
'resorts_'
'resolving_'
'resistant_'
'resist_'
'reservier'
'reservations_'
'resent'
'repay'
'repar'
'renz'
'renovated_'
'rene'
'rena'
'remuneration_'
'removal_'
'relocat'
'religiöse_'
'rele'
'relaxation_'
'relationships_'
'reis_'
'reihe'
'reiches_'
'reiche_'
'regierung_'
'regiert_'
'regel'
'reg'
'referendums_'
'rechtfertigen_'
'recepti'
'rebel'
'reat'
'realize_'
'realisier'
'reak'
'rds_'
'rche'
'rbeitung_'
'rava'
'rationali'
'ratified_'
'rami'
'rall'
'raid'
'rai'
'raft'
'racht'
'rach'
'quote'
'quotas_'
'quet'
'ques_'
'quem'
'quel'
'qualifizierte_'
'qualifications_'
'pursuing_'
'purely_'
'pup'
'punish'
'pull'
'publish_'
'publici'
'pto'
'präsentier'
'proze'
'prote'
'pros'
'promot'
'projekt_'
'profi'
'professionelle'
'prof'
'problemlos_'
'probleme'
'privilege_'
'printer_'
'pricing_'
'prestigious_'
'pressu'
'pressing_'
'preserved_'
'prescription_'
'pred'
'preca'
'praktizier'
'pragmatische'
'pragmatic_'
'pp_'
'positiven_'
'porn'
'por'
'pop'
'pollut'
'politi'
'pole'
'polarization_'
'poker_'
'pod'
'pocket'
'plitter'
'ple_'
'platforms_'
'plant'
'planes_'
'plag'
'placing_'
'pische'
'pipe'
'pine'
'pillar_'
'pick'
'pia'
'photograph_'
'pfl'
'pez'
'pest'
'perv'
'perta'
'persönliche'
'personen_'
'permission_'
'perl'
'pengu'
'peg'
'peer_'
'pedia_'
'path'
'part'
'parlamentarische_'
'panoramic_'
'panic'
'panel_'
'palästinensische_'
'painting_'
'pad_'
'pack'
'oz'
'owed_'
'ovi'
'overseas_'
'ove'
'ote_'
'ota_'
'ota'
'osten'
'ost_'
'osph'
'osl'
'osen_'
'osc'
'orientierte_'
'organisieren_'
'organic_'
'ordnen_'
'ordn'
'optical_'
'oppress'
'operators_'
'opera_'
'opa'
'onym'
'onom'
'onia_'
'ones'
'oner'
'onds_'
'omp'
'omo'
'ommene'
'ommend'
'omb'
'ological_'
'oll_'
'ohnehin_'
'ogn'
'ogen'
'offens'
'offe_'
'ocken_'
'occurs_'
'occupation'
'occup'
'oberste_'
'ober'
'nützlich_'
'nzl'
'num'
'nuestr'
'nsti'
'notification_'
'nostalgi'
'nom'
'nog'
'nlage'
'nka'
'nister'
'niedrigeren_'
'niedrige_'
'niederge'
'nglich_'
'ngen'
'newe'
'nevertheless_'
'neuesten_'
'nesian'
'nera'
'neoliberal'
'neighborhood_'
'neighbor_'
'neig'
'nehmer'
'nehme_'
'necessity_'
'neben'
'nding_'
'ndes_'
'nded_'
'nda'
'nationalist'
'nationales_'
'nant'
'nannte'
'nam'
'naiv'
'nada_'
'nachzudenken_'
'nachfolgenden_'
'mäßigen_'
'männliche'
'mächtig'
'má'
'myth'
'mysql'
'multinationalen_'
'multinational_'
'multinational'
'multilateralen_'
'mud'
'mpu'
'mouth_'
'mouse_'
'motivated_'
'mos'
'mortgages_'
'morat'
'moral'
'moon_'
'monet'
'modula'
'modu'
'modification_'
'modes_'
'modal'
'mobilis'
'mobile'
'mle'
'mix'
'mitteln_'
'mitteilen_'
'mitte'
'mitglied'
'missi'
'missed_'
'misma'
'minu'
'ministr'
'ministeri'
'minder'
'mill'
'militaris'
'mili'
'mier'
'mie_'
'midst_'
'micro_'
'method'
'mesis'
'merger'
'mercury_'
'merc'
'mende'
'mena'
'memu'
'memori'
'memiliki_'
'membe'
'mei'
'mehrfach_'
'mega_'
'mechanismus_'
'matt'
'materielle'
'massiven_'
'mask_'
'marginal_'
'march'
'manusia_'
'mankind_'
'manipulate'
'mangelnde_'
'mana'
'malig'
'mali'
'mais_'
'mai'
'magni'
'mag'
'mad'
'lüge'
'lze'
'luxuriöse_'
'lust'
'lth'
'lst'
'lossene'
'loom'
'lone'
'lokal'
'lohnt_'
'logistics_'
'logie_'
'logi'
'lli_'
'ller'
'llen'
'liz'
'lively_'
'literar'
'lion'
'linder'
'lina'
'lien_'
'lied'
'lieben_'
'liebe'
'licke'
'licht_'
'liberalization_'
'liberalen_'
'liation_'
'liat'
'lge'
'leute_'
'letzte'
'leit'
'leiste'
'legale'
'leere'
'lebendige'
'lebende'
'leak'
'lc'
'laya'
'lay'
'laute'
'lare'
'laptop_'
'lap'
'lance_'
'lah_'
'lager_'
'ladi'
'label_'
'kürz'
'kung_'
'kunden'
'kultur_'
'kultur'
'ktr'
'ktor'
'ktive'
'kte_'
'kräft'
'kritischen_'
'kriege'
'kreis'
'kratisch'
'korrigieren_'
'kontroll'
'kontinuierlich'
'konte'
'kontaktieren_'
'konstitutionelle'
'konst'
'konsequent_'
'konkurr'
'komplexer_'
'kompe'
'komm'
'km²_'
'kluge'
'klarer_'
'kki'
'kis_'
'kingdom_'
'kinder'
'kil'
'kg_'
'kete'
'kel_'
'kehrte_'
'kehrt_'
'keh'
'keen_'
'katastrophen_'
'katan_'
'kat'
'karbon_'
'kanadische'
'kampf_'
'jüdische'
'juristische'
'junct'
'journalist_'
'jin'
'jed'
'jak'
'jahrelang'
'ié'
'izi'
'ivi'
'iva'
'ité_'
'itution_'
'ittl'
'ittel_'
'ittel'
'ito_'
'ited_'
'itali'
'ita'
'istans_'
'isches_'
'irtschaft'
'irregular'
'irgendwo_'
'iranische_'
'irakischen_'
'ip_'
'invo'
'invites_'
'intri'
'intr'
'interview_'
'interventions_'
'interrupt'
'interinstitutional_'
'interference_'
'interessier'
'intensity_'
'intensif'
'intelligente'
'intelle'
'integ'
'int_'
'installi'
'installations_'
'inspired_'
'inspiration_'
'insec'
'innovativen_'
'innovat'
'inmitten_'
'inkl'
'initiat'
'inher'
'inhaftiert'
'ings'
'informelle'
'inevitably_'
'iner'
'indung_'
'individually_'
'indispensable_'
'indische_'
'indirekt_'
'indict'
'incredibly_'
'incorporate_'
'incit'
'inch_'
'inavi'
'inal'
'inakzeptabel_'
'inability_'
'importiert'
'imperative_'
'impe'
'imo'
'immunity_'
'immune_'
'immi'
'immer'
'imat'
'imagina'
'ima_'
'ilt'
'illo'
'iller'
'illa'
'ilfe'
'ilan'
'ikan_'
'iha'
'igt_'
'igra'
'ignori'
'ign_'
'ifor'
'iffen'
'iff'
'ifen_'
'ielt_'
'iegen'
'ieg'
'idor'
'ideologi'
'identification_'
'identical_'
'ident'
'idad_'
'ichtungen_'
'ibu'
'ibly_'
'ibility_'
'iba'
'ib_'
'iPod_'
'iPhone_'
'häufiger_'
'häu'
'husband_'
'hungry_'
'hu_'
'hru'
'hri'
'house'
'hos'
'honor'
'hon'
'holder_'
'hochwertige'
'ho_'
'hne'
'hmen'
'hlung'
'historisch_'
'historically_'
'hir'
'hinein'
'hilfen_'
'highlights_'
'hiera'
'hic'
'hib'
'hervorragende'
'herrliche'
'herbeiführen_'
'herausragende'
'hell_'
'heir'
'heilig'
'heben_'
'hearts_'
'heading_'
'headed_'
'haushaltspolitische'
'hauses_'
'hause'
'haus'
'handel_'
'handed_'
'hamper'
'hamm'
'halb_'
'haft'
'had'
'habe'
'gy_'
'gur'
'guided_'
'gua'
'gründet_'
'grundsätzliche'
'grundlegende'
'grobe'
'gratis_'
'good'
'gol'
'gni'
'gm'
'glä'
'gly'
'globe_'
'gleicher_'
'glaub'
'glad_'
'gk'
'gin_'
'gil'
'gifts_'
'ghts_'
'gewü'
'gewöhnliche'
'gewährt_'
'gewaltigen_'
'gesti'
'gesteckt_'
'gestaltete'
'gesetzgeb'
'geschenkt_'
'geringere_'
'geprägten_'
'gens'
'genom'
'genen_'
'gend'
'gemeinschaft_'
'geln_'
'gelegentlich_'
'geld_'
'geld'
'gelang_'
'geklärt_'
'gekennzeichnet_'
'gek'
'geistigen_'
'gehende'
'gehe_'
'gehalt'
'gegr'
'gefr'
'gefasst_'
'gebühren_'
'gebühr'
'gebun'
'geben'
'garage_'
'ganze'
'für'
'füllen_'
'fähigen_'
'fä'
'fus'
'funk'
'fundamentally_'
'fundamentalist'
'frustrat'
'fru'
'freut_'
'freundlicher_'
'frequen'
'fremde'
'fran'
'fragt_'
'fr'
'foster_'
'formation_'
'formally_'
'forgotten_'
'forg'
'folgende'
'folge'
'flour'
'flexiblen_'
'flag'
'fixes_'
'fiskalische'
'fisch'
'fire'
'find'
'finanzier'
'finanziell_'
'fige'
'fication_'
'ffi'
'ffekt'
'fetch'
'fertigte'
'fel_'
'feedback_'
'fed'
'fax_'
'favourable_'
'fas'
'farm'
'far'
'familiengeführte'
'fairen_'
'fahrzeuge_'
'fad'
'fachen_'
'extrem'
'extensi'
'expulsion_'
'exploring_'
'explizit'
'experiments_'
'experiment'
'exit'
'exemption_'
'excu'
'exclude'
'exceed_'
'ewe'
'evaluat'
'eute'
'eut_'
'europäisches_'
'euro'
'etung'
'ets'
'eto'
'esto'
'esa'
'eröffnen_'
'erzählt_'
'erzw'
'ery_'
'erwä'
'erweiterten_'
'erweitert_'
'erw'
'ertig'
'ersi'
'erra'
'ernste_'
'ern'
'ermittel'
'erläutern_'
'erhöhte_'
'erhöh'
'erg_'
'erfu'
'erfreu'
'erfass'
'erend_'
'erei'
'erbringen_'
'erate'
'eral'
'equal'
'epa'
'eous'
'entspr'
'entschied'
'entscheidungen_'
'entrepreneurial_'
'entrance_'
'entlich_'
'entin'
'enthaltenen_'
'entgegenge'
'entge'
'entfernten_'
'ensured_'
'enrich'
'enr'
'enne'
'engagierte'
'energisch'
'energie'
'enemy_'
'endi'
'endeavour'
'enb'
'empower'
'employ'
'empire_'
'empfunden'
'empfinden_'
'embr'
'embedded_'
'elli_'
'elit'
'elev'
'electorate_'
'ektor_'
'eko'
'eise_'
'einzurichten_'
'einzelner_'
'einstellungen_'
'einseitig'
'einschl'
'einnehmen_'
'einmalige_'
'einkommens'
'eingeschl'
'eingereicht_'
'eingeg'
'eingebe'
'eilt_'
'eige'
'eie'
'eichen_'
'ehrlich_'
'ehrgeizige_'
'ehrgeizige'
'ehren'
'egt_'
'egie'
'effizienten_'
'effizien'
'ef_'
'eel'
'edu'
'eding_'
'ection_'
'ected_'
'ecosystem'
'eckt'
'ecken_'
'echend'
'ebnen_'
'eber'
'dynamism_'
'durchsetzen_'
'durchschnittlich_'
'durchgesetzt_'
'dul'
'drift'
'drastic_'
'dramatische_'
'drama'
'dox'
'dow'
'doubts_'
'doo'
'document'
'dm'
'divi'
'diversen_'
'distribut'
'distin'
'distant_'
'disrupti'
'dispa'
'discretion_'
'discr'
'discount_'
'disclos'
'disappointed_'
'dio'
'din_'
'dimen'
'digitale_'
'dictate'
'dich_'
'diam'
'dha'
'dge_'
'df'
'dez'
'devi'
'developer'
'deux_'
'deutscher_'
'detection_'
'dest'
'despair_'
'derte'
'derselben_'
'dero'
'depressed_'
'deport'
'depo'
'departments_'
'demonstrieren_'
'demokratis'
'demographic_'
'democrati'
'dementsprechend_'
'deliberate'
'delet'
'delegate'
'defende'
'deeper_'
'deepening_'
'ded'
'decor'
'deci'
'decent_'
'dec'
'deadl'
'dauert_'
'dauern_'
'dauerhafte_'
'dateien_'
'databases_'
'dare'
'dangers_'
'dag'
'cular'
'cue'
'crystal'
'critici'
'credits_'
'cred'
'creature_'
'coverage_'
'cove'
'coup_'
'coun'
'coordinat'
'controller_'
'contradiction'
'contradict'
'contract'
'contra'
'contest'
'contempt_'
'contaminated_'
'constitutes_'
'consolidate_'
'consent_'
'confusion_'
'confused_'
'confo'
'config'
'confident'
'confe'
'conditional'
'concentrated_'
'compound'
'compli'
'complexity_'
'compile'
'competence_'
'compatibility_'
'communicate_'
'communi'
'commission_'
'colle'
'coach_'
'clou'
'clin'
'clim'
'cli'
'clear'
'cleane'
'clarify_'
'clara_'
'claiming_'
'civilians_'
'cis'
'circum'
'chtig'
'chroni'
'chläge_'
'chens'
'ched_'
'characteristics_'
'chair_'
'cer_'
'cepat_'
'celebrate_'
'cel'
'ceiling_'
'cca'
'cau'
'casinos_'
'casino_'
'carries_'
'captain_'
'cali'
'cabin'
'büro'
'bös'
'burne'
'bungen_'
'bt'
'brüc'
'brutal_'
'brochure'
'breit_'
'bre_'
'brand'
'branche'
'brachten_'
'boy_'
'borne_'
'blä'
'blue'
'blocked_'
'blis'
'bles_'
'biot'
'biodiversity_'
'bias'
'bg'
'bezug_'
'bewältig'
'bewährte'
'beweisen_'
'bewegung_'
'betrug_'
'betrachte_'
'besucht_'
'bestä'
'bestre'
'bestrafen_'
'besticht_'
'besetz'
'bese'
'beschrieben_'
'beschleunigt'
'bes'
'berta'
'bern'
'berichten_'
'bereiche_'
'bene_'
'benannt'
'beliefs_'
'beliebtes'
'beliebige'
'belieb'
'belastet_'
'beklag'
'bekannteste'
'beider_'
'behold_'
'behindert_'
'behavi'
'begrenzten_'
'begl'
'beginn'
'begeben_'
'begangen_'
'befri'
'befehl'
'beer_'
'bedingten_'
'bedien'
'bedeutete_'
'bedeutendsten_'
'bedenk'
'beauftragte'
'bears_'
'baute'
'battles_'
'bases_'
'basa'
'barely_'
'balcony_'
'bailout_'
'bag'
'bad'
'backs_'
'aß'
'aya_'
'aviation_'
'aver'
'automo'
'automati'
'auto_'
'auszuüben_'
'auszur'
'auszub'
'australische'
'aussp'
'ausreichende_'
'ausp'
'ausn'
'ausmachen_'
'ausgi'
'ausgewählt_'
'ausgew'
'ausgerichtete'
'ausgelegt_'
'augen'
'aufzuh'
'aufste'
'aufs_'
'aufregende'
'aufhören_'
'aufgestellt_'
'aufgerufen_'
'aufgegriffen_'
'aufeinander'
'auern_'
'audience_'
'aud'
'attraktive_'
'attending_'
'atra'
'atr'
'atm'
'asymmetri'
'astr'
'aster'
'assung_'
'assess_'
'assembl'
'assault'
'ass'
'aspirations_'
'asiatische_'
'asa'
'arm_'
'ario'
'arin'
'argumentiert_'
'archives_'
'arabisch'
'aps_'
'appeal'
'ape'
'anzuwenden_'
'anzug'
'anxiet'
'antwort'
'ants_'
'antis'
'antiqu'
'antibioti'
'antag'
'anta'
'anschließend_'
'anschließen_'
'anschl'
'announcement_'
'anniversary_'
'annex'
'anne'
'anme'
'anj'
'anhä'
'angs'
'angewendet_'
'angenehm_'
'angekündigte'
'angebotenen_'
'angebot_'
'anfäng'
'andern'
'anbelangt_'
'ampli'
'amin'
'amid'
'amerikanisch'
'ame_'
'ambitions_'
'allu'
'alls'
'allo'
'allmählich'
'allein'
'alla'
'alkohol'
'alisier'
'alie'
'alia_'
'aktiven_'
'akti'
'ake'
'aka'
'airlines_'
'airline_'
'aine'
'ain_'
'aim'
'aik'
'agiert'
'aggressive'
'agent_'
'after'
'advocat'
'ads_'
'adjusted_'
'adjust_'
'actors_'
'activ'
'achsen'
'achievements_'
'achievement_'
'accurate_'
'accordingly_'
'acco'
'accident_'
'abzielt_'
'absol'
'abrupt'
'aboard_'
'ables_'
'abi'
'abba'
']]'''
'] ._'
'Zwi'
'Zus'
'Zurück'
'Zun'
'Zukunfts'
'Zoll'
'Zin'
'Zers'
'Zentren_'
'Zellen_'
'Zeitalter_'
'Zeilen'
'Zahlungen_'
'Zahlung_'
'Yam'
'XL'
'Wur'
'Wri'
'Works'
'Workers_'
'Wirtschaftsp'
'Wirtschaftlich'
'Will'
'Wilhelm_'
'Wies'
'Wiener_'
'Wiederg'
'Wichtig_'
'Wesen_'
'Wes'
'Wertpapiere_'
'Werte'
'Werkzeug_'
'Werk'
'Weltraum'
'Well_'
'Weiterentwicklung_'
'Wasch'
'Wars'
'Want_'
'Wandels_'
'Wachstumsp'
'Wach'
'Vu'
'Vorz'
'Vorsicht_'
'Vors'
'Vorhaben_'
'Voice_'
'Vladimir_'
'Vit'
'Visual_'
'Visit'
'Village_'
'Villa'
'Victoria_'
'Victor'
'Verzeichnis_'
'Vertriebs'
'Vertretung_'
'Vertrags_'
'Vertr'
'Verstä'
'Versorgung_'
'Verschl'
'Versch'
'Verr'
'Vermittlungs'
'Verletz'
'Veri'
'Verheugen_'
'Verha'
'Verfassungsvertrag'
'Vereinfachung_'
'Verantwortungs'
'Veranstaltungsräume_'
'Veran'
'Vera'
'Venez'
'Vene'
'Vegas_'
'VP_'
'Users_'
'Uruguay_'
'Urteil'
'Ursprungs'
'Urheber'
'Urbanisierung_'
'Unterschied'
'Unterscheidung_'
'Unst'
'Unruhen_'
'Unlike_'
'Univers'
'Unabhängig'
'Umst'
'Umsatz_'
'Umfrage_'
'Ultimately_'
'Ub'
'UP'
'Twitter_'
'Twin'
'Tw'
'Tuesday_'
'Tsi'
'Trä'
'Trick'
'Treib'
'Travel_'
'Translat'
'Transfer'
'Track'
'Tow'
'Tourismus'
'Total_'
'Tot'
'Tokyo_'
'Tir'
'Thu'
'Thro'
'Thor'
'Theater'
'Thatcher_'
'Textil'
'Terror'
'Terminal_'
'Tempe'
'Telekommunikation'
'Techni'
'Tai'
'Tag'
'TS'
'TION_'
'TEC'
'Synchron'
'Sydney_'
'Sud'
'Subve'
'Stör'
'Store_'
'Stev'
'Steuerung_'
'Sternen'
'Stereo'
'Step'
'Stell'
'Staatsverschuldung_'
'Staatsführ'
'Staatsbürger'
'Staat'
'Spl'
'Spaltung_'
'Sozialis'
'Sonnens'
'Some'
'Sogar_'
'Soft_'
'Socialists_'
'Slow'
'Sla'
'Sing'
'Simpl'
'SilverFast_'
'Siege'
'Sicherung_'
'Sich'
'Shin'
'Sham'
'Several_'
'Seve'
'Settings_'
'Sende'
'Senat_'
'Seitens'
'Seg'
'Seen_'
'Script'
'Scott_'
'Schw'
'Schulte'
'Schuh'
'Schottland_'
'Schocks_'
'Schlag'
'Schiffen_'
'Schengen_'
'Schaup'
'Schach'
'Sara'
'Santiago_'
'Sahara_'
'Sachs_'
'Sac'
'SV_'
'SLR_'
'SIN'
'SAR'
'Rosa'
'Rod'
'Robert'
'River'
'Rig'
'Richtlinien'
'Richter_'
'Revolution'
'Revision_'
'Reu'
'Rettung_'
'Rese'
'Representative'
'Rep'
'Renten_'
'Rennen_'
'Renminbi_'
'Ren'
'Relax_'
'Reisende'
'Regulat'
'Registr'
'Register'
'Reduzierung_'
'Redner_'
'Redner'
'Reden_'
'Record'
'Rechtsp'
'Rechtsetzung'
'Recent_'
'Rece'
'Raumfahrt'
'Ratsvorsitzes_'
'Rating'
'Randlage_'
'Ramblas_'
'Raketen'
'Raj'
'Rahmenprogramm'
'Rahmenbedingungen_'
'RSS_'
'RP'
'RGB_'
'RG'
'RC_'
'Quartal_'
'Quart'
'Quark'
'Pä'
'Ps_'
'Präsenz_'
'Proze'
'Promo'
'Prog'
'Prof_'
'Produktivitäts'
'Prim'
'Prad'
'Pou'
'Poss'
'Pos'
'Portal'
'Poo'
'Poly'
'Poll'
'Political_'
'Plu'
'Plattform_'
'Photos'
'Photo'
'Philadelphia_'
'Pfe'
'Pfa'
'Petersburg_'
'Pes'
'Pensions'
'Pen_'
'Pem'
'Parliamentary_'
'Parkplätze_'
'Parag'
'Papier'
'Paketen_'
'PRI'
'PCs_'
'Oste'
'Ora'
'Operationen_'
'Ocean_'
'Objektiv'
'OM'
'OLAF_'
'OD'
'Null'
'Nuklear'
'Nuevo_'
'Now'
'Niedergang_'
'News'
'Neues_'
'Nepal'
'Neigung'
'Near_'
'Nachrichten'
'NRO_'
'NOT'
'NA_'
'NAFTA_'
'Mütter'
'Mé'
'Mutter'
'Mut'
'Muss'
'Muslim'
'Music_'
'Motion_'
'Moral'
'Monte_'
'Monday_'
'Monats_'
'Momentan_'
'Mode'
'Mod'
'Mitt'
'Mitgliedsländer_'
'Mitb'
'Milliarde_'
'Mili'
'Meld'
'Meister'
'Meines_'
'Meilen'
'Mea'
'Maßstab_'
'Mau'
'Master_'
'Massachusetts_'
'Mars'
'Marke_'
'Mandela_'
'Manche_'
'Made'
'Machthaber_'
'Macedonia_'
'M5'
'Lücke'
'Lösungs'
'Lösch'
'Länge_'
'Lunch'
'Lui'
'Luggage_'
'Lor'
'Loca'
'Lite'
'Liikanen_'
'Lif'
'Lieferung'
'Liebe_'
'Liebe'
'Lich'
'Liberia_'
'Liberalen_'
'Level_'
'Lev'
'Leone_'
'Leonardo_'
'Leica_'
'Leh'
'Lega'
'Lebensg'
'Learning_'
'Lass'
'Las'
'Landes'
'Lande_'
'Lan'
'Lah'
'Laden_'
'LDP_'
'LC'
'Kurse'
'Kunststoff'
'Kräften_'
'Krit'
'Kri'
'Kreditgeber_'
'Krediten_'
'Krankenh'
'Kosm'
'Kooperations'
'Konzerne_'
'Konzepte_'
'Konzept'
'Konvergenz_'
'Kontin'
'Konst'
'Konkurrenz_'
'Kongo_'
'Konflikts_'
'Konflikt'
'Kompromisse_'
'Komplettpreise_'
'Kommentare_'
'Komme'
'Komm'
'Koll'
'Kol'
'Kohlendioxid_'
'Koch'
'Klar'
'Kerry_'
'Kel'
'Kathedrale_'
'Kategorien_'
'Kart'
'Kapitel_'
'Kapazität_'
'Kanäle_'
'Kanal'
'Kaiser_'
'KMU_'
'Joe'
'Jh'
'Jede'
'Jav'
'Jar'
'Japan'
'Jacuzzi_'
'It'
'Isolation_'
'Irak'
'Interna'
'Intergovernmental_'
'Integrat'
'Inte'
'Int'
'Insofern_'
'Ine'
'Imperi'
'Immunität_'
'Imag'
'Ih'
'ISIS_'
'INI_'
'ICC_'
'Häufig'
'Händler_'
'Hus'
'Hungers'
'Hongkong_'
'Hold'
'Hochschule'
'History_'
'Histori'
'Hind'
'Himmel'
'Hilton_'
'Hilfen_'
'Hil'
'Herz_'
'Her_'
'Helm'
'Heimat_'
'Heat'
'Handlungs'
'Handelss'
'Handelsb'
'Halle_'
'Halbinsel_'
'Haiti_'
'HT'
'HP_'
'Güter_'
'Gül'
'Gü'
'Göteborg_'
'Gö'
'Gute_'
'Guid'
'Gui'
'Gue'
'Grunds'
'Große_'
'Grill'
'Gremien_'
'Gran'
'Gr'
'Gordon_'
'Gorba'
'God'
'Gleiche_'
'Gift_'
'Gib'
'Gewähr'
'Gewissen'
'Gesundheitsversorgung_'
'Geschäftsb'
'Geschenk_'
'Gesche'
'Gerät_'
'Gere'
'Gepäck'
'Georgien_'
'Genu'
'Geni'
'Gemäß'
'Gemeinw'
'Gemeinschaftsm'
'Gemein'
'Gelegenheiten_'
'Geiste'
'Gegenden_'
'Gefangenen_'
'Gefangene'
'Gebühr_'
'Gebäuden_'
'Garni'
'Garantien_'
'Gandhi_'
'Gan'
'Game'
'GR'
'GL'
'Fünfte'
'Führer'
'Födera'
'Future_'
'Further_'
'Fundament'
'Frie'
'Freund_'
'Freib'
'Frauen'
'Frank'
'Fox_'
'Fotokopiereinrichtungen_'
'Fotograf'
'Fortschritts'
'Forst'
'Format'
'Fon'
'Flughafen'
'Flug_'
'Flu'
'Flexi'
'Fischereipolitik_'
'Fische'
'Finger'
'Find'
'Finanzminister_'
'Finanz_'
'Feuer_'
'Feind_'
'Fein'
'Features_'
'Farm'
'Fak'
'Fair_'
'Fachw'
'FA_'
'Expo'
'Experten'
'Expe'
'Excel_'
'Events_'
'Event_'
'Europäisches_'
'Eur'
'Ethi'
'Erwerbs'
'Erweiterungs'
'Erscheinung_'
'Ersch'
'Ersatz'
'Eropa_'
'Ero'
'Ernährungs'
'Erkenntnis_'
'Ericsson_'
'Erg'
'Erfolge'
'Erfind'
'Entwicklungsa'
'Entlastung_'
'Entf'
'Entdeckung_'
'Englische'
'Energiequellen_'
'Energiepolitik_'
'Energiea'
'Elf'
'Einzig'
'Einschränkungen_'
'Eins'
'Einladung_'
'Einkaufss'
'Einheiten_'
'Eingriff'
'Eigenschaft_'
'Ehe_'
'Eh'
'Effekte_'
'Eck'
'Easy_'
'Dänemark_'
'Dy'
'Drucke'
'Drive'
'Drittstaaten_'
'Dow_'
'Dou'
'Don_'
'Don'
'Dominion_'
'Division_'
'Disku'
'Dilemma_'
'Differenzen_'
'Dha'
'Dev'
'Denkens_'
'Deng_'
'Demonstranten_'
'Deli'
'Delhi_'
'Defense_'
'Davi'
'Dav'
'Datenbank'
'Dai'
'DT'
'DR_'
'DP'
'DEN'
'DB'
'Cyber'
'Crystal_'
'Cove'
'Countries_'
'Count'
'Corr'
'Corn'
'Continental_'
'Consult'
'Consider_'
'Consequently_'
'Cons'
'Congo_'
'Conc'
'Computers'
'Commerce_'
'Commander_'
'Colon'
'Coffee_'
'Cocktail'
'Clar'
'Christian'
'Chip'
'Chicago_'
'Chen'
'Chef'
'Chat_'
'Champs_'
'Chai'
'Centr'
'Cath'
'Carr'
'CL'
'CK'
'CC_'
'Büro_'
'Büro'
'Bäume_'
'By'
'Bushs_'
'Bundesrepublik_'
'Bulgarian_'
'Building_'
'Brun'
'Broc'
'Brit'
'Bridge_'
'Brennstoffe_'
'Brand_'
'Bour'
'Bou'
'Botschaften_'
'Bosnia_'
'Borde'
'Boote'
'Bonn_'
'Blut_'
'Blume'
'Bilde'
'Bibliotheken_'
'Bib'
'Bewerb'
'Bevölkerungen_'
'Bevor_'
'Betriebssystem_'
'Betrachtung_'
'Bestrebungen_'
'Bestellung_'
'Best'
'Beschränkungen_'
'Bericht'
'Berge'
'Berater_'
'Benjamin_'
'Bemühen_'
'Bell_'
'Belgian_'
'Bekenntnis_'
'Behinderung'
'Behinderte'
'Begriffe'
'Bedauerlicherweise_'
'Bec'
'Beau'
'Bearbeit'
'Beamte'
'Baum'
'Battle'
'Bath_'
'Bangladesch_'
'Baj'
'Bahrain_'
'Baby_'
'BSE_'
'BRICS_'
'BBC_'
'B6_'
'Aviv_'
'Autonom'
'Automati'
'Austritt_'
'Austin_'
'Ausstellung'
'Ausmaße'
'Ausge'
'Ausgabe_'
'Auftrags'
'Aufklärung_'
'Ate'
'Ast'
'Assozi'
'Ash'
'Arzneimittel'
'Arr'
'Armenia_'
'Arme'
'Arg'
'Arbeitsplatz_'
'Applikation'
'Appart'
'Apollo_'
'Any'
'Anwendungs'
'Anwar_'
'Ant'
'Anspr'
'Anrei'
'Anpassungs'
'Anpassungen_'
'Annäherung_'
'Anhang_'
'Angehörige'
'Angabe_'
'Andernfalls_'
'And'
'Analysen_'
'Amb'
'Alkohol_'
'Alco'
'Alc'
'Albu'
'Albert_'
'Akzeptanz_'
'Aktionäre_'
'Akteur_'
'Akt_'
'Ahm'
'Agriculture_'
'Admi'
'Act_'
'Acht_'
'Abänderung'
'Absen'
'Absa'
'Abre'
'Able'
'Ablauf_'
'Abk'
'Abh'
'Abgeordnete'
'ASE'
'AND_'
'ALDE_'
'AKVIS_'
'AKP_'
'AGE'
'AA'
'?”'
'87_'
'77'
'75'
'58_'
'44'
'225'
'20th_'
'1982_'
'1973_'
'1970s_'
'1960'
'1929_'
'1920'
'160'
'128_'
'124'
'002'
'/-_'
'. ({{_'
'. &#_'
'*_'
'**'
')]'
''']]'
'">'
' �_'
' “ _'
' £_'
' =='
' #'
' "._'
' ", _'
'…'
'“ '
'’ – _'
'— _'
'–'
'ע'
'ғы'
'ь_'
'ық'
'ыр'
'ші'
'ф'
'сы'
'ро'
'про'
'нда'
'ль'
'лық_'
'ли'
'л_'
'ки'
'ид'
'же'
'ге'
'ва'
'ο_'
'μ'
'ž_'
'ši'
'Š'
'ła'
'Č'
'üsten'
'üss'
'ürge'
'ürf'
'ündig'
'ünder'
'ühl'
'ügel'
'ück_'
'übrig_'
'übl'
'überwi'
'überraschen'
'überr'
'übern'
'überlegen_'
'übergreifende'
'übergeben_'
'überb'
'überarbeitet'
'ü'
'ør'
'öster'
'öste'
'ösch'
'ört_'
'öpfen_'
'ökologischen_'
'öf'
'öd'
'ño'
'ï'
'ère_'
'äußere'
'äume_'
'äufe_'
'äte'
'äss'
'äs'
'ärm'
'änkte'
'ändige'
'ändig'
'ältere_'
'ähnlichen_'
'ägt'
'äg'
'ädig'
'ächtig'
'ál'
'ßig'
'ßende'
'Überraschung_'
'Überr'
'Überdies_'
'Ängste_'
'Ägypte'
'» | _'
'}: _'
'|''_'
'zögern_'
'zweis'
'zweige'
'zuzug'
'zuwei'
'zuv'
'zuteil_'
'zusammenzuarbeiten_'
'zusammenhäng'
'zurzeit_'
'zun'
'zufrieden'
'zt'
'zl'
'zivile_'
'zip_'
'zine'
'zin_'
'zierungs'
'ziel'
'zend'
'zell'
'zehnt'
'zauber'
'zan'
'zahlreicher_'
'yn_'
'yn'
'yle'
'yk'
'yields_'
'yh'
'yed_'
'yc'
'xen'
'wör'
'wärts'
'währende'
'wählt_'
'wurf_'
'wunders'
'wro'
'writ'
'wound'
'worries_'
'worauf_'
'wora'
'wooden_'
'wol'
'wm'
'withdrawal_'
'withdraw_'
'wit'
'wirksamen_'
'wire'
'winn'
'wind'
'willig_'
'will'
'wild'
'wig'
'wiesen_'
'wiederge'
'widmet'
'widerst'
'wic'
'wi_'
'wettbewerbs'
'wenigstens_'
'wellbeing_'
'welcomed_'
'weisung'
'weekly_'
'wear_'
'wat'
'wast'
'warnings_'
'ware'
'wac'
'völlige'
'vö'
'vsk'
'vs'
'vot'
'vorsi'
'vorschriften_'
'vorschläge_'
'vorliegende_'
'vorliegen_'
'vorherigen_'
'vorgez'
'vorgehen_'
'vorgebracht'
'vorauss'
'volunteers_'
'volunteer_'
'volume'
'volatile_'
'visuali'
'visual_'
'virtue_'
'violat'
'villa'
'vidu'
'vici'
'vest'
'verzeichnen_'
'verwirklichen_'
'verwandelt_'
'verurteilen_'
'verträg'
'vertritt_'
'vertreib'
'vertrauen_'
'versuch'
'verstä'
'verspr'
'verschwunden_'
'verschwende'
'verschli'
'versagt_'
'vernichte'
'vernetzt'
'vermögen'
'verma'
'verlängert_'
'verlangsamt_'
'verlager'
'verkündet_'
'verhäng'
'vergr'
'vergeb'
'verfe'
'verfassungs'
'vered'
'verdräng'
'verbu'
'verbreit'
'verbre'
'verbraucht'
'verbrauche'
'verbracht'
'verbleibenden_'
'verbesser'
'verantwortlichen_'
'verantwort'
'verabschiedeten_'
'vent_'
'varian'
'vant'
'vall'
'validity_'
'vacuum_'
'vaccination_'
'vaca'
'utze'
'utan'
'ust_'
'usses_'
'usschuss_'
'usly_'
'urz'
'uropäische'
'uro'
'urm_'
'urh'
'urg'
'urbani'
'upper_'
'upload_'
'uphe'
'uo'
'unwi'
'unterstrichen_'
'unterstreicht_'
'unterste'
'unterschr'
'unterschiedlicher_'
'unterschied'
'unterdrückt'
'unsicher'
'unschuldige'
'unresolved_'
'unrec'
'unr'
'unpro'
'unli'
'unk'
'universe_'
'univers'
'uniti'
'uniform_'
'uni_'
'ungsz'
'ungssysteme'
'ungsst'
'ungspro'
'ungsma'
'ungsm'
'ungslos'
'ungsa'
'ungl'
'ungeh'
'ungeb'
'unein'
'undo'
'undertakings_'
'undertaking_'
'undertaken_'
'undermine'
'undenen_'
'unclear_'
'unanimous_'
'unan'
'unabhängiges_'
'umst'
'umn'
'umi'
'umgehend_'
'umben'
'ulu'
'ult_'
'ulos'
'ugn'
'ufer'
'ues'
'uchte'
'ualität_'
'tür'
'tümer_'
'té'
'täts'
'tägliche_'
'tzes_'
'typ'
'twar'
'tut'
'turn'
'turm_'
'tsu'
'tst'
'truppe'
'troll'
'triumph_'
'trigger_'
'tric'
'tribunal'
'treibe'
'trea'
'tration_'
'trat'
'transporte'
'transpo'
'transnational_'
'transmitt'
'transmi'
'transfer'
'trans_'
'tran'
'trajectory_'
'train'
'tragi'
'traf_'
'traditionell_'
'tradition'
'tracking_'
'trac'
'tower_'
'towels_'
'tout_'
'touristi'
'tou'
'totalitäre'
'total'
'tonn'
'tolerate_'
'tolera'
'tisi'
'tischer_'
'tione'
'tine'
'timely_'
'tier_'
'tien'
'tief'
'tib'
'tian_'
'thrive_'
'threaten_'
'thread_'
'thou'
'thoroughly_'
'thereafter_'
'there'
'therap'
'theo'
'thee_'
'thanking_'
'texte'
'terus_'
'terroristische'
'tero'
'termina'
'terk'
'teria'
'teri'
'terbu'
'tent_'
'tends_'
'tender'
'tenden'
'tempor'
'tellung_'
'tell'
'tek'
'teilzunehmen_'
'teils_'
'technologische_'
'technologie'
'techni'
'tch_'
'taxpayer_'
'tax'
'tale'
'tailored_'
'tahu'
'tab_'
'sätz'
'sys'
'synchroniz'
'sympath'
'swor'
'svors'
'svoll'
'suspended_'
'suspect'
'survey'
'supranational_'
'support'
'supplied_'
'supervis'
'supermarkets_'
'suns'
'sugge'
'succeed'
'substanzielle'
'subst'
'sua'
'stücke'
'stück_'
'stärkere'
'städtische'
'sty'
'studie'
'strukturellen_'
'struggle'
'strikes_'
'strengen_'
'streaming_'
'strand'
'strafrechtlich'
'stoßen_'
'stlich'
'stische'
'stin'
'stimmung'
'stige'
'stick'
'stic'
'stete'
'sters_'
'steri'
'stell'
'steil'
'steady_'
'stays_'
'starte'
'starker_'
'standardiz'
'standardis'
'stamp'
'stakes_'
'stabilen_'
'stabil_'
'ssy_'
'ssung_'
'ssten_'
'ssions_'
'srecht'
'sra'
'sr'
'sque'
'sq'
'spüren_'
'spur'
'spring'
'sprin'
'spreche_'
'sprachen_'
'spot'
'sponsored_'
'spezialisierte'
'speaks_'
'spare_'
'span'
'sozio'
'sorry_'
'sorgfältig_'
'sont_'
'sonstige_'
'sofortige'
'socialist_'
'soc'
'snow_'
'snack'
'smi'
'smal'
'sly_'
'slower_'
'slos'
'slope_'
'slogan_'
'slee'
'skiing_'
'skat'
'sitze'
'sistem_'
'sir'
'sip_'
'sional_'
'sinn'
'sinkende'
'simulation_'
'simplif'
'signa'
'sights_'
'sicht_'
'sicheren_'
'shrinking_'
'shou'
'shortfall'
'shoe'
'shocked_'
'shock'
'ship'
'shifts_'
'shifted_'
'shelter'
'shame'
'shal'
'sfo'
'sessions_'
'sers'
'sern'
'sentence_'
'sene'
'send'
'seminar'
'seltsam'
'selecti'
'sekitar_'
'sehe'
'sees_'
'securi'
'sections_'
'secretar'
'sechs'
'scientist_'
'schätzt_'
'schwäch'
'schwinde'
'schwi'
'schwedischen_'
'schutz'
'schung_'
'schule'
'schulden_'
'schuh'
'schriftliche_'
'schreib'
'schließt_'
'schli'
'schlechter_'
'schirm'
'schickt'
'schic'
'schedule_'
'scharfe'
'schalte'
'schade'
'scenes_'
'scare'
'scal'
'sberei'
'saud'
'satisfactor'
'satisfaction_'
'sanita'
'sang'
'samples_'
'sample_'
'sagten_'
'safely_'
'safeguard_'
'sacr'
'sache'
'saa'
'rüst'
'räum'
'rypt'
'rust'
'rus'
'rundlage'
'ruhiger_'
'ruhige_'
'ruhe_'
'rude'
'ruck'
'rtu'
'rtschaft'
'rted'
'rta_'
'rste'
'rsion_'
'rro'
'royal'
'routine'
'round'
'ror'
'rontation'
'roman'
'rolle'
'rog'
'rodukt'
'rmin'
'rman'
'rliche'
'rkl'
'rken'
'rivers_'
'rivalr'
'rival'
'riv'
'risiko_'
'ringt'
'ril'
'rik'
'rigoro'
'riebe'
'rial'
'riad_'
'revolution'
'revive_'
'revel'
'reva'
'restrict_'
'restraint_'
'resso'
'resp'
'resilien'
'residents_'
'residenc'
'resid'
'reserven_'
'resc'
'republic_'
'republi'
'repu'
'repo'
'reo'
'renewal_'
'renamed_'
'remind'
'remembered_'
'remedy_'
'remark'
'reluctant_'
'rell'
'relaxed_'
'reiterate_'
'reiten_'
'reis'
'reinsta'
'reift'
'reichsten_'
'reichlich'
'reicher'
'regul'
'regrettabl'
'regist'
'regieren'
'refuge_'
'reformed_'
'reforme'
'reflects_'
'refi'
'reduzier'
'redistribution_'
'recyc'
'recurr'
'recording'
'reconst'
'reconcile'
'recom'
'rechtmäßig'
'rechtlich_'
'rebuild'
'reasonably_'
'realiz'
'realist'
'readers_'
'react'
'reaches_'
'rben'
'rbeit_'
'raus'
'rauch'
'ratur'
'rats_'
'ration'
'rating_'
'ratic_'
'ramp'
'raf'
'radikale_'
'radikal_'
'radical'
'racy_'
'race'
'quot'
'quip'
'quicker_'
'quest'
'query_'
'qualify_'
'py'
'puls'
'publications_'
'publi'
'ptions_'
'ption'
'psychische'
'pré'
'proxy_'
'provok'
'provinc'
'protocol'
'proportional'
'propo'
'pronounced_'
'pron'
'projekt'
'proj'
'prohibit'
'profitab'
'profession'
'produzier'
'produkt'
'problematisch_'
'probe_'
'private'
'prisons_'
'printing_'
'principal_'
'principal'
'pria'
'prevails_'
'prevail_'
'prest'
'press'
'preside'
'present'
'preferences_'
'preference_'
'preferable_'
'predictable_'
'preceden'
'preach_'
'praktischer_'
'praise_'
'prachigen_'
'prache'
'pped_'
'ppe_'
'powered_'
'potenziellen_'
'potato'
'pot'
'poss'
'positively_'
'positionier'
'positioned_'
'positi'
'pose'
'portray'
'portion_'
'porte'
'porta'
'pora'
'polizei'
'pok'
'plätze_'
'pled'
'pleas'
'playground_'
'plain_'
'pity_'
'piscin'
'pilot'
'pie_'
'pi_'
'phy'
'pflege'
'pflanze'
'pf_'
'petit'
'persone'
'personality_'
'pers_'
'permits_'
'permanente'
'perm'
'periode_'
'peran'
'penting_'
'pent'
'pensions_'
'peni'
'pemimpin_'
'pemerintah_'
'pedestrian_'
'ped'
'pear'
'pav'
'passive_'
'passion_'
'passen_'
'partnerschaftliche'
'participated_'
'partei_'
'park'
'parc'
'paradox'
'paradigm'
'pap'
'pag'
'packaging_'
'ownership_'
'overwhelm'
'overcoming_'
'outp'
'outlined_'
'ourcen'
'oub'
'otr'
'oti'
'oster'
'ossen'
'osition'
'osa'
'orthodox'
'orth'
'orn_'
'orm_'
'originate'
'origin'
'ories_'
'orientiert_'
'ori_'
'organize'
'organisierte_'
'ordnet_'
'ordina'
'ordert_'
'orb'
'orate'
'option'
'optimism_'
'optimalen_'
'optim'
'opted_'
'oon_'
'onism'
'onier'
'olive_'
'olis'
'olig'
'olg'
'oler_'
'olan'
'oil'
'oid_'
'oh_'
'ofi'
'officer_'
'offi'
'offenkundig_'
'offene'
'observer_'
'oblige'
'oberfläch'
'oasis_'
'nötige_'
'nähe'
'näch'
'nza'
'nutzt_'
'nutzbar_'
'nuts_'
'nutri'
'nung_'
'ntwicklung_'
'ntsch'
'nstr'
'nstein_'
'nste'
'nqu'
'notable_'
'nost'
'nos'
'normali'
'nominal_'
'noisy_'
'noi'
'noc'
'nnung_'
'nner'
'nischen_'
'nisch_'
'nineteenth_'
'nil'
'nigt_'
'nick'
'nic_'
'ngung'
'ngka'
'ngga'
'neutral_'
'neueste_'
'neuere'
'neuem_'
'nesses_'
'nent'
'nel_'
'nei'
'ndliche'
'ndete'
'nde'
'nche'
'nce'
'nca'
'national'
'nas_'
'nari'
'nami'
'nal_'
'nachweis'
'nachkomm'
'nachhaltiger'
'müh'
'möglich'
'mäßige'
'männ'
'muy_'
'music'
'murder'
'mund'
'mud_'
'mt'
'mst'
'mps'
'mpli'
'mpl'
'mounting_'
'mounted_'
'mosqu'
'mord'
'moralischen_'
'mond_'
'mol'
'modelle_'
'mmelt_'
'mitigate_'
'mitb'
'mission'
'misa'
'miracle_'
'mir'
'minimiz'
'mineral_'
'miner'
'mination_'
'milita'
'migrat'
'mig'
'mic_'
'metri'
'meter'
'messe'
'merchan'
'mera'
'menuju_'
'mentally_'
'meningkatkan_'
'memp'
'memberi'
'meld'
'mehrheit'
'mehrerer_'
'medien'
'med'
'meaningful_'
'mbr'
'maßge'
'maximal'
'mathematics_'
'mat_'
'master'
'masih_'
'married_'
'marriage_'
'marktor'
'marki'
'mari'
'marble_'
'manual_'
'mant'
'mann'
'manipulation_'
'mandatory_'
'managers_'
'maker_'
'maj'
'mah'
'maga'
'macht'
'mac'
'löst_'
'läßt_'
'läufe'
'längerfristige'
'läng'
'ländliche_'
'läh'
'lys'
'lvi'
'lusion'
'lush_'
'lur'
'lun'
'luk'
'luas_'
'luar'
'ltung'
'loud'
'lord'
'loop'
'logg'
'locked_'
'lock'
'locally_'
'loan_'
'lm'
'litt'
'literally_'
'lit_'
'liste'
'linge'
'liness_'
'lineare'
'linear_'
'limit'
'likelihood_'
'liga'
'lift_'
'lifetime_'
'liere'
'lief'
'lichsten_'
'licensing_'
'liberation_'
'liberalisi'
'lfi'
'leveraged_'
'letters_'
'lette_'
'lessly_'
'lens_'
'leitung_'
'leitete_'
'leistungsfähige'
'leid'
'leichte'
'leich_'
'lehnt'
'left'
'lebe'
'ldet'
'laundry_'
'latz_'
'latein'
'laser_'
'langer_'
'landschaft_'
'landes_'
'lament'
'lakes_'
'lacking_'
'labor'
'kümmert_'
'kämpft'
'käm'
'ky'
'kurzen_'
'kurse_'
'kup'
'kund'
'ksa'
'krank'
'kostengünstig'
'kostenfreien_'
'kostenfreiem_'
'korrupt'
'korrekte_'
'konzipier'
'konzert'
'konze'
'konvertier'
'kontinentale'
'konstruktiv'
'konservativen_'
'konsequente_'
'konkreter_'
'kompakt'
'kommunistische_'
'komit'
'komfortabel_'
'kombiniert_'
'kohlenstoffarme'
'know'
'kne'
'knappe'
'klären_'
'klingt_'
'klassische'
'klassi'
'kir'
'kilometre'
'ket'
'kere'
'keines_'
'ked'
'kate'
'katastrophal'
'kare'
'kar_'
'kapital_'
'kapit'
'kap'
'kant'
'kane'
'kana'
'kampagnen_'
'kamera'
'kale'
'kai'
'jö'
'justi'
'jus'
'junior_'
'jung'
'judgments_'
'judged_'
'jordan'
'jeu'
'jeti'
'jail'
'jahre'
'jack_'
'iziert'
'itäts'
'itz'
'itis'
'itin'
'itet_'
'iter'
'istung'
'istisch'
'isse'
'islamistische'
'irresponsible_'
'irresp'
'irgendwann_'
'inviting_'
'investor_'
'investigations_'
'investasi_'
'invent'
'inve'
'invasion_'
'invade'
'into'
'intimate_'
'inti'
'interviews_'
'interven'
'interpreted_'
'interna'
'interim_'
'interessant_'
'intensiver'
'integrieren_'
'inte'
'instan'
'instabil'
'inputs_'
'inos_'
'injur'
'inhaltlich'
'ingt_'
'inger_'
'ingen'
'infrastruktur_'
'informi'
'informa'
'infla'
'inf'
'ines'
'industrialis'
'indire'
'indications_'
'indication_'
'indicates_'
'indert'
'incur'
'incorrect'
'incon'
'incompeten'
'inclusive_'
'incin'
'ination'
'inan'
'imperial'
'illustr'
'ilder'
'ild'
'iken_'
'ike'
'ikat'
'ihrerseits_'
'igi'
'ification_'
'iff_'
'ife'
'iet'
'ierungsa'
'ience'
'ied'
'ieb_'
'idio'
'identisch'
'icon_'
'ico'
'ichte'
'ibe'
'ianische'
'hübsch'
'höh'
'höf'
'hybrid_'
'hunderte'
'humi'
'human'
'hub'
'hrung_'
'hrs'
'hrow_'
'hou'
'hosted_'
'horrif'
'horn'
'hop_'
'hohes_'
'hochge'
'hoc_'
'hle_'
'histori'
'hing'
'hilfe'
'hiking_'
'highlighted_'
'hid'
'heutzutage_'
'herzliche'
'herunter_'
'herum'
'hers'
'heroi'
'hero_'
'herge'
'herd'
'hende_'
'hend_'
'hellen'
'heite'
'heed_'
'hedge_'
'hed'
'hebt_'
'heb'
'heating_'
'headline'
'header'
'haya_'
'haven'
'hast'
'harte_'
'harte'
'harsh'
'harmonise_'
'harmonis'
'harde'
'harb'
'hanya_'
'handic'
'halt'
'hall'
'hag'
'habt_'
'habita'
'haber_'
'gängige'
'gänger'
'gym'
'gungs'
'gul'
'guitar'
'guilty_'
'guest'
'guard'
'gster'
'gründe'
'gründ'
'größtmögliche'
'grösste'
'grundlegend_'
'großartige_'
'grows_'
'griff'
'grew_'
'grenzübergreifende'
'grenze_'
'greift_'
'gray_'
'gravierende'
'gravi'
'gratu'
'graph'
'grafische'
'gma'
'glu'
'globalized_'
'globalisierten_'
'glaubt_'
'gl'
'gkeiten_'
'giv'
'ging'
'gie_'
'ghe'
'ggen'
'gewählte_'
'gewaltige'
'getötet_'
'getrennt'
'getestet_'
'geteilte'
'gestü'
'gestellten_'
'geste'
'gestattet_'
'gestatten_'
'gesetzlichen_'
'gesetzlich_'
'gesenkt_'
'gesellschaftlich'
'geschätzten_'
'geschickt'
'geschichte_'
'geringste'
'geringen_'
'geriet'
'gerichteten_'
'gericht'
'gere'
'gepfl'
'gepa'
'genügt_'
'geno'
'genetic_'
'geneti'
'genaue_'
'gemä'
'gemischte'
'gemachte'
'gelöscht_'
'geladen'
'gekü'
'geka'
'geistig'
'gei'
'gehe'
'gegner'
'gefühl'
'gefällt_'
'gedie'
'gede'
'gebrochen_'
'gebraucht_'
'gebeten_'
'geba'
'gastro'
'gasse_'
'gangs'
'galt_'
'gall'
'gah_'
'fügt_'
'fü'
'förderung_'
'furnishings_'
'funktionierende'
'funktion'
'fungier'
'fung'
'functionality_'
'ftig'
'frühe'
'früh'
'freundlichen_'
'freundlich'
'freiwillig_'
'freies_'
'fragment'
'founder_'
'fos'
'fortune_'
'fortgeschrittenen_'
'formulate'
'formale'
'forgi'
'foo'
'font'
'fold_'
'flood_'
'flood'
'float'
'fließen_'
'fliegen_'
'flicht'
'flexibler'
'flaw'
'flavo'
'fischen_'
'finger'
'fine'
'finanzpolitische'
'filter'
'fier'
'fici'
'fica'
'fi_'
'ffl'
'feuer'
'festste'
'feste_'
'fern_'
'feind'
'fehler'
'fehlenden_'
'fehlen'
'feels_'
'federa'
'featured_'
'fathers_'
'fatal'
'fasc'
'falschen_'
'fall'
'fal'
'fairness_'
'fahre'
'fac'
'ey'
'exzellenten_'
'extremism_'
'exquisite_'
'exposure_'
'explosion_'
'exploit'
'explo'
'explicit_'
'explanations_'
'explains_'
'expecta'
'exhaust'
'exert'
'exercised_'
'exercis'
'executive_'
'execute_'
'excuse_'
'exci'
'excellence_'
'exact_'
'ewin'
'evolving_'
'evolution_'
'evera'
'eventual_'
'europaweit_'
'eug'
'etzt_'
'etzbar'
'etrie'
'etie'
'ethische'
'eth_'
'eternal_'
'etari'
'eta_'
'esten_'
'estan'
'esta_'
'essor'
'espa'
'eso'
'esk'
'esen'
'esc'
'erörtert_'
'erörtern_'
'erzielten_'
'erzeugte'
'erz'
'erwir'
'erweise_'
'erwach'
'erver'
'erva'
'eru'
'erteilt_'
'erstreckt_'
'erstaunliche'
'ersetzt_'
'erschüttert'
'erschie'
'errichtete'
'erp'
'ero_'
'ernsthafte'
'erneuerbaren_'
'ernd'
'ernannt_'
'ermutigt_'
'erlä'
'erleide'
'erla'
'erklärte'
'erklär'
'erka'
'eriu'
'erinner'
'erholsame'
'erfe'
'erfasst_'
'erende'
'ereich'
'erei_'
'erbracht'
'erbe_'
'erbaut_'
'erarbeitete'
'eran'
'equip'
'ept'
'eo'
'env'
'entwurf_'
'entwicklung_'
'entwickelnde'
'entstand_'
'entsch'
'entries_'
'entm'
'entgegenzu'
'enter'
'enteil'
'entails_'
'enswert'
'enst'
'enso'
'enro'
'enjoyable_'
'enheit_'
'engines_'
'endure'
'endung'
'endanger'
'ency'
'enan'
'empfind'
'empfiehlt_'
'emm'
'emission'
'ementi'
'emble'
'elten_'
'ellung_'
'ellte'
'elles_'
'elin'
'eliminated_'
'eligible_'
'elet'
'elementar'
'elektronische_'
'elektroni'
'elektrische'
'elegan'
'electronic'
'elb'
'eks'
'ekr'
'eitige'
'einzustellen_'
'einz'
'eint'
'einsetzt'
'einr'
'einla'
'einig'
'einheimischen_'
'einhei'
'eingesp'
'eingeräumt_'
'eingerichteten_'
'eindeutige'
'einbr'
'einbezieh'
'einb'
'eilen_'
'eignen_'
'eigens'
'eigenem_'
'eichnungen_'
'eichne'
'eibungen_'
'ehn'
'ehen'
'egr'
'eful_'
'effizienter_'
'editi'
'ecting_'
'echn'
'eche'
'ebenen_'
'earn'
'dust'
'durchd'
'dum'
'duk'
'dscha'
'drückt'
'drängt_'
'dritte'
'dringlich'
'drew_'
'drau'
'drastisch_'
'dose'
'dorthin_'
'dorf_'
'dop'
'donation'
'dominiert_'
'dominat'
'dokumentier'
'dn'
'dler'
'diz'
'diversification_'
'divers'
'divergen'
'dive'
'dition'
'distanz'
'disso'
'disruption_'
'displays_'
'displa'
'disp'
'disin'
'dish'
'discon'
'disappointing_'
'disadvantaged_'
'directors_'
'dire_'
'diplomats_'
'digung_'
'diger'
'differentiate'
'differ_'
'dieselben_'
'diesbezügliche_'
'devastating_'
'deutlicher_'
'deten'
'destin'
'destabiliz'
'desse'
'desired_'
'desde_'
'derl'
'deregulation_'
'dere'
'derartiges_'
'derartiger_'
'deprived_'
'depende'
'density_'
'dense'
'delt'
'delightful_'
'delete_'
'degradation_'
'deflation'
'defizit_'
'definieren_'
'defer'
'defeat'
'deepe'
'decreas'
'decoupling_'
'declines_'
'deal'
'dauer_'
'datum_'
'daten'
'dasselbe_'
'dargestellt_'
'dankbar_'
'dane'
'dan'
'damalige_'
'damaging_'
'damages_'
'dama'
'dahin'
'dae'
'dacht'
'curtai'
'ctions_'
'ction'
'ctable_'
'cry_'
'crown'
'criterion_'
'creativity_'
'cr'
'counterfeit'
'cot'
'cosmetic'
'cosm'
'cord'
'cooperative_'
'cooking_'
'conviction_'
'controlling_'
'conten'
'contemp'
'contacts_'
'consume'
'consult_'
'construct_'
'constrain'
'consiste'
'conscious_'
'connecting_'
'coni'
'confronting_'
'conform'
'configured_'
'configure_'
'confer'
'conductor'
'condo'
'condi'
'concludes_'
'conciliation_'
'conci'
'concert_'
'concert'
'concepts_'
'compromises_'
'compr'
'compliment_'
'complement_'
'complaints_'
'complained_'
'complain_'
'complacen'
'competitors_'
'comparative'
'comparable_'
'comment'
'commande'
'comer'
'collectively_'
'collections_'
'collecti'
'cola'
'coins_'
'coherence_'
'cog'
'cock'
'cob'
'coat'
'coastal_'
'cloth'
'cler'
'cle'
'clau'
'ckung'
'cking_'
'ckelt'
'circles_'
'cion'
'cinema'
'cian'
'chsen'
'chronic_'
'chre'
'ching_'
'chine'
'chic'
'chest'
'chere'
'checke'
'cheat'
'charit'
'charakteristisch'
'char'
'chapter'
'chairs_'
'chaf'
'ceremon'
'centri'
'censor'
'ced'
'cease_'
'cci'
'catch'
'cata'
'carri'
'cardi'
'card'
'capt'
'capability_'
'cand'
'cancel'
'campaigns_'
'camel'
'calm_'
'butt'
'bust'
'bureau'
'bundes'
[...]
